the 210202514
, 177064040
. 174674715
of 94308793
and 91499763
in 78470355
" 75669318
to 74664216
a 68928874
was 39347257
- 34372745
he 28069172
is 27924450
as 25941483
for 25851893
on 25827686
that 24803526
with 23330692
it 23116593
i 22839042
's 21411859
his 20954571
by 18600088
at 18068993
) 16732060
( 16701474
from 15730744
her 14030806
she 13303241
an 12026607
you 11888054
had 11556497
' 10892658
be 10788360
this 10250647
were 10164668
but 9976035
are 9556833
they 9129247
not 8660486
have 8060201
one 7998784
or 7937224
which 7928481
't 7182250
their 7095281
all 6661611
him 6477597
my 6343763
also 6245396
has 6230996
first 6190161
who 6018474
up 5995397
when 5790740
out 5755155
after 5704420
there 5568121
been 5562962
we 5500080
into 5384428
would 5372432
its 5294500
me 5275396
time 5097698
two 5017898
: 4996149
; 4860990
new 4793323
about 4522207
so 4517672
other 4418735
more 4412440
then 4342162
what 4336748
can 4289810
no 4241483
them 4207513
if 4183523
over 4158259
only 3776550
like 3734172
said 3693031
some 3676312
back 3664785
will 3399061
could 3381281
do 3306946
where 3246388
before 3192014
just 3169451
during 3134390
through 3013302
than 3012506
made 2988075
well 2914696
now 2904803
most 2839202
us 2774801
while 2772801
years 2742298
your 2673484
world 2663366
down 2646157
people 2645859
may 2634495
school 2625836
three 2619527
man 2571915
between 2562524
being 2534982
year 2523236
such 2491190
these 2483175
many 2473799
later 2462057
around 2366622
did 2360176
used 2275906
way 2274478
under 2267252
! 2254384
both 2236304
city 2224982
part 2193619
against 2143383
even 2133343
work 2124585
state 2124554
get 2123867
off 2121877
how 2111525
second 2080351
know 2064255
known 2063821
any 2054972
until 2054712
day 2048034
1 2041140
because 2008776
see 1987577
university 1963670
became 1951444
life 1950028
still 1937953
don 1934898
national 1926958
un@@ 1909118
our 1907075
since 1901946
long 1898845
re@@ 1872673
team 1865809
o 1845887
head 1830160
house 1814992
took 1807176
born 1807050
family 1798676
de 1795089
season 1787507
again 1786871
high 1785467
each 1783534
united 1782325
go 1780266
same 1778476
film 1775718
however 1775368
war 1756095
2 1740679
south 1736541
much 1734451
right 1732320
found 1700950
another 1699987
including 1695857
called 1691330
american 1685823
place 1679092
name 1671219
very 1660623
states 1659969
left 1651935
make 1629536
four 1609111
'd 1608966
home 1599119
north 1583507
didn 1577932
group 1574837
end 1572676
several 1569895
k@@ 1567222
away 1553141
those 1532570
own 1529382
here 1524453
began 1518050
area 1516879
take 1513418
good 1508372
old 1498682
side 1484177
number 1481723
never 1474673
'm 1472059
going 1467871
last 1464614
following 1464438
use 1455429
won 1454950
company 1450833
eyes 1449166
series 1443996
men 1420733
3 1418811
early 1400350
came 1398548
game 1397599
too 1390692
little 1385137
released 1372211
music 1368892
played 1362695
hand 1359631
small 1351825
% 1346532
album 1342961
few 1342510
son 1340309
held 1335882
government 1333903
best 1333679
d@@ 1328112
went 1311107
line 1289838
along 1287663
looked 1281793
s 1266271
something 1264786
thought 1258558
town 1257138
west 1254515
based 1250317
next 1248978
district 1248974
think 1247786
're 1246479
face 1245944
league 1237502
in@@ 1231533
come 1227081
set 1221208
4 1221200
o@@ 1218887
father 1216679
john 1207483
water 1203489
m 1202870
t 1196228
county 1193850
room 1185918
within 1178870
general 1176325
want 1175400
p@@ 1170534
c 1169274
should 1168022
great 1163511
let 1159244
five 1157027
got 1156780
without 1154740
large 1151324
show 1149909
church 1149176
club 1148567
though 1147662
/ 1143490
t@@ 1142365
god 1140008
g@@ 1134465
king 1125801
al 1123571
st 1121722
able 1120959
s@@ 1118860
al@@ 1117721
system 1116411
public 1111996
'll 1111851
air 1110545
march 1109636
led 1103210
book 1101031
u@@ 1099512
once 1099267
women 1098108
station 1097766
east 1095769
n@@ 1093591
d 1092756
started 1092152
ar@@ 1085194
september 1083908
party 1082564
building 1079563
college 1078865
10 1077302
every 1076318
member 1073110
k 1072437
de@@ 1069449
land 1067670
children 1067405
international 1063876
located 1063412
e@@ 1061195
look 1060696
b 1058689
january 1056037
body 1049246
former 1049154
need 1046054
october 1045644
june 1044193
5 1043008
am 1042706
death 1042489
due 1042098
u 1040594
a@@ 1040513
times 1038204
b@@ 1032461
although 1030154
century 1029984
y@@ 1028841
different 1027118
z@@ 1025109
named 1024506
july 1017832
night 1015566
august 1013061
top 1012575
er 1009299
local 1009192
i@@ 1008716
moved 1007312
e 1007198
river 1006220
single 1004803
door 1002240
himself 1000736
band 997997
love 996703
april 996474
york 995581
built 994790
power 993774
m@@ 993072
having 992468
age 986169
november 985077
song 982946
open 982225
an@@ 977940
order 977420
black 975179
turned 974804
december 969125
why 968892
help 966376
saw 964583
point 964421
received 961798
british 961103
've 958146
c@@ 957417
service 956515
third 947432
final 947402
l 945818
6 945789
put 945623
p 945355
& 945307
together 943663
road 943286
president 942750
must 940017
white 939075
felt 938983
es 935882
behind 935068
asked 934024
find 933004
members 932829
served 932127
main 929515
say 928552
major 927421
days 927166
law 926084
field 923147
knew 922615
light 917165
front 917109
often 912602
near 912468
le@@ 911410
things 907872
play 901712
mother 900954
l@@ 897905
late 893297
village 888481
young 886958
football 886902
ro@@ 885243
form 883653
unk 883469
died 882659
g 879122
2010 878008
told 876875
across 871697
february 869647
become 868789
h@@ 868703
> 867403
country 865339
< 864734
among 860919
f@@ 857175
given 855483
ever 853090
n 851765
j@@ 849359
army 848462
en 842084
history 841394
red 838554
published 838189
six 837493
really 836555
street 835941
wanted 835763
park 835673
making 834533
species 834245
games 832485
full 829305
gave 825520
20 824811
2011 824639
half 824205
others 823854
always 821850
enough 821683
according 820789
ra@@ 818148
di@@ 813691
7 813557
12 811704
er@@ 810918
woman 810654
2012 810220
v@@ 807935
might 806623
$ 804666
included 802624
8 800533
include 799980
art 799243
office 798770
less 797905
la 797254
r 796832
opened 795686
en@@ 789319
continued 787731
lost 787379
seen 785237
run 783539
using 783147
business 782823
w@@ 780981
ch@@ 773486
center 773426
story 772388
h 771844
2013 769939
r@@ 768356
2008 767461
2014 767341
court 766958
2009 766535
car 764304
english 764124
se@@ 763254
does 762630
central 762361
tell 761643
community 760133
million 758762
live 758273
better 757918
far 756359
wasn 755944
short 755880
almost 755744
hands 755394
worked 754584
human 753171
y 751934
french 751608
15 751442
upon 748941
development 748864
co 748574
give 745862
original 745658
population 743120
mind 743057
returned 741845
2015 739974
division 736136
free 735604
nothing 731864
support 728769
career 728625
voice 728297
research 726673
sure 725080
control 724594
thing 724138
soon 721793
be@@ 719674
2006 717761
ti@@ 714345
2007 712382
9 711164
2016 710792
mar@@ 710424
working 709098
fire 706893
already 704856
close 703798
force 703124
30 702342
ha@@ 702159
co@@ 700923
level 699957
ers 699860
looking 699396
am@@ 698427
big 698063
non 696520
council 695524
established 694688
london 694647
case 693574
further 690418
anything 689460
11 688585
la@@ 688480
students 686875
living 685748
german 685538
role 684038
military 682397
various 681780
important 680376
ground 679421
island 677175
record 676109
written 675731
works 675497
keep 675477
ate 673345
least 672959
created 671543
mo@@ 671282
as@@ 670017
ten 669937
el@@ 669390
u.s 667746
title 667601
ma@@ 667546
li@@ 666884
bo@@ 666782
wife 666272
period 664738
taken 664408
v 663877
ri@@ 662180
act 658641
class 658027
cup 657143
x 655905
feel 655218
18 654804
ed 654503
education 654310
western 653893
person 652207
ii 650941
position 649884
2017 649598
inside 649009
'@@ 648605
player 647966
joined 647901
at@@ 647896
done 647710
16 647678
award 643018
board 642495
or@@ 639863
yet 639261
produced 637799
real 635715
region 635193
ts 635178
political 634927
hard 634734
sh@@ 633790
appeared 632103
announced 630607
heart 630587
14 630424
followed 628500
car@@ 628430
social 626033
round 625867
married 624429
f 623277
either 621380
director 621095
television 620504
course 619970
site 619128
wrote 619122
today 618246
ab@@ 618147
program 617625
instead 617403
society 617203
hall 616942
re 615428
si@@ 615415
towards 614902
ne@@ 613094
lo@@ 612939
ing 612917
outside 612452
reached 611202
taking 610753
words 610615
2018 609128
13 607578
described 606756
department 606539
low 605610
2@@ 605546
police 605102
brother 604166
production 603781
considered 603491
couldn 602631
ran 600320
information 600308
someone 598576
finally 598215
england 596924
past 592660
change 592517
present 592043
con@@ 589951
lead 589927
association 588134
win 587948
rest 587088
to@@ 585529
union 584604
25 584418
moment 583523
heard 583397
el 581953
special 581634
space 580978
project 580920
me@@ 578777
everything 577992
da 577569
z 577066
17 576947
founded 576400
3@@ 574512
above 574210
radio 573033
man@@ 571721
rock 571455
money 570360
election 570157
leave 568747
start 567898
table 567859
playing 566961
championship 566660
trying 566112
ation 564867
version 564387
] 564355
royal 563972
call 563261
total 562721
brought 562621
on@@ 561551
return 561432
le 560861
word 560633
2005 558168
tried 556607
ad@@ 556551
summer 556438
per 556052
language 555467
james 554610
battle 553242
common 552891
rather 552513
decided 552134
list 551879
ship 550967
months 550500
dark 549925
similar 547755
ated 545322
sound 545123
stood 544341
professional 544046
services 543532
stop 542129
match 541282
northern 540624
bu@@ 540359
william 539493
girl 539183
16@@ 538247
lu@@ 537433
fact 537351
doing 536921
daughter 536591
america 536041
sea 535601
lord 534924
sent 534838
seven 534726
despite 534633
san 534129
example 533981
child 533931
formed 533733
move 532726
[ 532470
food 531986
post 531618
finished 530516
du@@ 529740
india 528871
seemed 528376
southern 527588
stone 527045
met 526843
eventually 525653
design 525503
week 525302
im@@ 525297
24 525009
coming 524534
middle 524513
european 524252
floor 523986
turn 523261
event 522910
result 522869
feet 522179
bi@@ 521428
developed 520853
george 519837
quickly 518119
needed 518053
france 517716
arms 517615
ag@@ 516850
do@@ 516146
lot 515780
australia 515195
friend 512982
st@@ 512291
2019 512187
green 512114
su@@ 510720
21 510453
friends 510384
19 510141
recorded 509387
possible 509340
bed 509148
video 508864
2004 508453
modern 507713
blue 507541
ru@@ 507073
se 506797
health 506057
bar@@ 504731
mi@@ 504626
forces 504349
throughout 504242
j 504195
term 504160
training 503276
areas 503211
science 502821
ine 502709
it@@ 502286
release 502035
is@@ 502014
process 500816
minutes 499496
california 499104
believe 498951
th@@ 498530
blood 497563
news 497374
lake 497364
4@@ 496655
wall 496071
ni@@ 495968
david 495888
morning 495608
hit 495479
sa@@ 494931
care 493681
pe@@ 493324
sat 492308
elected 491021
closed 490214
events 489800
maybe 489601
probably 489303
remained 488851
running 488729
star 488359
idea 488140
ac@@ 488069
signed 487165
hair 487140
killed 487133
whole 487047
addition 486121
usually 485845
ton 484787
type 484277
mr 483746
chief 482539
study 482307
walked 482182
points 481363
self 481252
appointed 481071
minister 480964
earth 479909
sometimes 478429
em@@ 478010
books 476537
w 476407
x@@ 475823
originally 473731
22 473480
available 472915
popular 472296
placed 472261
ko@@ 471783
added 471364
ar 471308
tv 471221
thus 470930
getting 470706
dead 470384
style 470071
kind 469687
eight 468847
canada 468239
per@@ 467926
track 466906
railway 466661
go@@ 466508
hours 466358
sp@@ 465625
says 464135
ho@@ 463938
deep 463007
paul 462753
media 462745
currently 462309
strong 461776
2000 461758
pulled 461682
current 461486
records 461157
action 460372
bridge 460294
stage 459792
construction 459173
vi@@ 457647
herself 457380
no@@ 455710
race 455706
23 455451
ted 453869
leading 453515
else 453480
eastern 453064
te 452886
he@@ 452505
mu@@ 452501
seat 451437
ta@@ 450945
private 450908
debut 449630
ya 449218
try 448561
future 448430
especially 448073
means 448011
character 447655
involved 447582
bank 447241
toward 446981
plan 446501
ber@@ 445946
formula 445551
museum 444256
os 444173
teams 443975
energy 443868
longer 443621
ka 443388
wood 443289
sold 443253
boy 442786
songs 442394
_ 442273
centre 442198
attack 441981
gold 441682
te@@ 441265
range 440178
es@@ 439775
itself 439624
2003 439103
forward 438978
indian 438864
yes 438565
actually 437962
beginning 437647
designed 437366
everyone 437135
par@@ 437104
schools 435999
ke@@ 435535
passed 435006
so@@ 433496
true 433367
rights 432932
tour 432565
ting 432369
wide 432274
route 431743
changed 431652
100 430801
5@@ 430594
ba@@ 429468
hospital 429278
har@@ 428304
alone 428061
bit 427574
features 427147
writing 425845
lower 425371
kept 424859
committee 424562
germany 424312
talk 424101
shot 423966
michael 423120
china 422992
et 422729
base 422601
saying 422203
groups 422006
performed 421869
na@@ 421819
mouth 421092
parents 420349
movement 419633
hill 418707
official 418259
spent 418182
28 417786
bad 417265
26 416767
dis@@ 416527
op@@ 416466
europe 415861
master 415837
performance 415699
2002 415629
australian 415549
pre@@ 415190
completed 414471
over@@ 414436
players 413812
directed 413355
27 413320
hold 412812
lived 411972
coach 410166
themselves 410058
network 410027
section 409261
brown 409114
largest 408265
leaving 408240
il@@ 408130
uk 407559
onto 407531
ge@@ 407093
15@@ 405883
reported 405669
institute 404702
2001 404285
province 403971
festival 403562
fight 403439
previous 403247
kingdom 402758
gu@@ 402734
cor@@ 401812
arm 400962
matter 400868
um 400812
studies 400369
arts 400259
ley 399934
mark 399895
17@@ 399892
sch@@ 399801
ating 399515
thomas 399441
allowed 399225
cross 399006
da@@ 398695
size 398235
view 398100
entire 397142
sister 396971
parts 396085
robert 396065
medical 396030
via 395944
whose 395738
certain 395186
interest 394975
hear 394867
fourth 394846
countries 394819
pro@@ 394809
mean 394799
myself 394547
market 394514
provided 394338
ma 394252
job 393944
gone 393666
key 392325
ice 392199
fall 392098
po@@ 391898
dr 391373
raised 390818
stated 390726
attention 390627
stopped 389897
model 389480
average 389474
read 388741
reason 388693
cut 388586
ly 388408
captain 388322
earlier 387598
japanese 386937
natural 386599
6@@ 386249
data 385696
fell 385356
der 385321
stay 385207
professor 385016
degree 384302
episode 384255
higher 384135
ap@@ 384068
washington 383756
civil 383373
sub@@ 383319
ta 382415
security 382202
includes 382169
entered 382000
ol@@ 381143
0 380885
ended 379696
mc@@ 379482
sky 379452
officer 379368
happened 379222
oh 379074
leader 378689
provide 378485
chinese 378370
los 378302
tu@@ 377921
female 377567
academy 377307
ds 376570
quite 376410
replaced 376356
mid 376089
na 376023
ka@@ 375798
technology 375790
federal 375611
success 375329
clear 375299
qu@@ 374922
ver@@ 374848
sun 374350
charles 373783
staff 373766
featured 373727
standing 373420
magazine 373381
systems 373007
anyone 372284
independent 371602
japan 371343
grand 370913
experience 370680
shows 369713
competition 369684
ic@@ 369453
29 369285
meeting 368898
organization 368821
conference 368198
peter 367821
understand 367528
bay 367101
studio 366415
sense 366035
50 366027
personal 365820
moving 365735
capital 365657
deal 365219
lives 364880
phone 363760
coast 363683
below 363539
om@@ 363348
die 363336
campaign 362963
sc@@ 362204
feeling 362196
sir 362062
opening 361505
makes 361416
aircraft 361313
van 361122
winning 360608
couple 360592
pi@@ 360415
meet 360389
ates 360168
whom 359862
wouldn 359540
date 359055
1999 358984
ous 358286
introduced 357462
doesn 356856
weeks 356684
nearly 356374
valley 356156
ia 356020
owned 355437
whether 355289
husband 354681
management 354349
mor@@ 354253
christian 353836
industry 353027
ak@@ 352975
hi@@ 352689
related 352461
russian 352417
successful 352410
nature 352352
immediately 352188
tournament 351869
previously 351857
test 351587
les 351558
sports 351530
active 351264
buildings 351090
senior 351027
question 350587
port 349620
bring 349408
complete 349320
ga@@ 349213
mon@@ 349128
takes 348994
pa@@ 348173
mary 348081
smile 347583
ana 346874
awarded 346856
jesus 346712
ask 346224
heavy 345672
ago 345503
henry 345080
inter@@ 344475
forced 344201
canadian 343974
ter@@ 343934
command 343758
lines 343724
goal 343581
fully 343421
ina 343331
hope 343221
th 342722
covered 341820
ready 341420
places 341188
ans 340965
cover 340455
economic 340438
ec@@ 340139
primary 339952
ca@@ 339822
comes 339733
ant 339610
practice 339336
awards 339269
trade 339114
ad 338952
problem 338500
relationship 338484
fine 338292
arrived 338066
9@@ 337339
7@@ 337289
bill 337148
girls 336727
stand 336683
starting 336316
1998 336252
spanish 336142
month 335911
student 335451
thinking 335246
40 334844
hu@@ 334668
mal@@ 334661
perhaps 334494
hot 334228
report 333781
limited 333547
remember 333411
mountain 333082
eye 332915
der@@ 332344
press 332273
attended 332102
helped 332048
prior 331752
hour 331636
decision 331585
des 331334
forest 330808
als 330741
era 330625
nine 330543
cu@@ 330365
bar 330075
ford 330001
walk 329905
structure 329822
property 329245
tree 329193
africa 329120
collection 327949
giving 327930
smiled 327489
31 326956
required 326837
twenty 326530
standard 326386
ci@@ 325973
pu@@ 325627
regular 325441
caused 325361
generally 325221
ra 324555
approximately 324554
significant 324438
ter 324387
au@@ 324139
culture 324113
governor 323670
queen 323613
ways 323576
holding 323456
individual 323446
foreign 323406
families 323179
contract 323060
cold 323012
cause 322681
operation 322453
jack 322355
access 322288
novel 321219
1996 321125
di 320839
pass 320785
therefore 320571
rose 320412
operations 320204
films 320123
evidence 319593
mission 319341
length 319254
kill 319155
becoming 318908
theatre 318677
italian 318402
managed 318270
loss 318141
glass 318112
scored 318102
unit 317573
offered 317526
1997 317362
slowly 316889
library 316736
8@@ 316099
traditional 315882
channel 315821
ku@@ 315669
plant 315539
artist 315364
direction 314862
paper 314789
anti 314467
mostly 314349
republic 314114
tri@@ 314057
ability 313025
ling 312973
cannot 312946
ah 312488
smith 312331
carried 312227
completely 312191
create 311855
gi@@ 311537
pain 310428
mer@@ 310373
initially 310233
figure 309682
break 309485
simply 309329
roman 309037
window 309001
studied 308929
older 308794
chair 308411
particular 308337
african 308149
q@@ 307842
foundation 307314
truth 307289
fa@@ 307070
distance 306623
believed 306549
surface 306490
caught 306315
location 306315
computer 306164
pay 305881
saint 305434
companies 305326
ring 305108
associated 305016
wi@@ 304763
historic 304688
ch 304515
speed 304427
religious 304177
issues 303386
plays 303369
commission 303308
drive 303020
box 302834
ul@@ 302464
dance 302136
jo@@ 302107
manager 301440
cell 301423
runs 301413
1995 301221
regional 301061
author 300772
richard 300708
wing 300325
sal@@ 300000
fi@@ 299921
highest 299859
lies 299315
ball 299314
watched 299075
cast 299010
response 298843
listed 298727
ir@@ 298518
gun 298387
ke 298377
km 298204
problems 297790
stars 297583
particularly 297538
allow 297440
ur@@ 297383
changes 296807
ireland 296565
fear 296421
native 296264
paris 296216
noted 296194
numerous 296179
appearance 295980
subject 295861
represented 295693
1994 295689
hadn 295676
ships 295659
1992 295596
texas 295541
meant 295257
effect 294773
ms 294680
peace 294613
secretary 293769
victory 293767
wrong 293602
terms 293409
defeated 293315
train 293288
reach 293041
ler 292923
likely 292853
beyond 292849
skin 292804
navy 292722
bel@@ 292436
lady 291959
chance 291585
complex 291443
camp 291149
except 290985
sa 290863
financial 290721
issue 290589
suddenly 290183
her@@ 290148
commercial 289980
additional 289537
poor 289448
names 289124
catholic 288990
continue 288905
follow 288704
knowledge 288258
material 288165
ten@@ 287955
increased 287920
waiting 287693
bur@@ 287319
piece 287216
source 287125
silver 287082
ve@@ 286979
talking 286469
ones 286443
ne 286388
ancient 285901
wa@@ 285826
engine 285350
grew 285229
shall 285069
can@@ 284742
uses 284715
movie 284611
policy 284377
foot 283829
castle 283748
remains 283602
ba 283457
den 283393
directly 283218
writer 282948
annual 282545
spirit 282204
step 281960
houses 281835
ations 281726
ons 281620
failed 281371
watch 280943
breath 280941
guard 280938
assembly 280818
larger 280794
artists 280689
youth 280654
stories 280581
happy 280563
parliament 280192
metal 280127
ph@@ 279889
famous 279788
physical 279637
census 279247
boys 279168
theory 279133
cases 279037
activities 278927
highway 278534
fish 278494
prince 278481
soviet 278445
singer 278324
mine 278317
legal 278005
ks 277772
majority 277642
situation 277639
medal 277404
straight 277350
square 277297
municipality 277154
1993 277125
attempt 276829
gar@@ 276621
plans 276540
cost 276306
trust 276151
corner 276114
marriage 276114
launched 275835
upper 275779
results 275698
beautiful 275475
review 275438
executive 275340
1990 275332
chicago 275297
edge 275296
minute 275292
double 274905
empire 274806
1991 274705
meaning 274468
ju@@ 274439
hotel 274330
doctor 274175
spoke 274132
sitting 274099
forms 273665
gh@@ 273577
bus 273467
fast 273392
guy 273376
specific 273073
dropped 272971
serving 272842
ja@@ 272519
va 271776
difficult 271758
fellow 271680
temple 271539
kar@@ 271276
soldiers 271270
nearby 271220
scene 270999
bal@@ 270771
male 270135
ki@@ 269781
focus 269775
filled 269753
answer 269516
trees 269236
rural 269014
é@@ 268723
pan@@ 268548
musical 268258
sk@@ 268071
characters 267726
chapter 267551
speak 267522
we@@ 267351
airport 267196
shown 267041
lay 266611
expected 266427
shoulder 265896
out@@ 265860
championships 265412
nodded 265289
selected 265005
showed 264862
justice 264687
ps 264674
subsequently 264600
looks 264574
worth 263668
goes 263615
ren@@ 263353
edition 263247
discovered 263144
rate 262798
br@@ 262656
administration 262187
store 262132
cultural 262093
units 262091
greater 261977
oil 261864
miles 261820
recent 261688
cal@@ 261394
fort 261356
wind 261233
presence 261033
agreed 260658
com@@ 260641
ic 260453
brothers 260078
den@@ 260055
please 259866
contains 259583
winter 259350
remaining 259176
feature 259150
operated 258816
ings 258646
sex 258586
programs 258233
supported 258214
mexico 258205
hell 258092
increase 257357
historical 257350
ian 256950
claimed 256783
ty 256328
angeles 256043
under@@ 255996
variety 255941
horse 255489
nation 255394
flight 255369
separate 255321
italy 255181
hundred 255144
status 254884
tic 254814
1989 254499
zealand 254455
greek 254248
lips 254246
sign 254216
ger@@ 254100
direct 254009
wait 253898
ner 253624
fighting 253512
ge 253393
lack 253276
responsible 252789
value 252765
for@@ 252570
# 252533
chest 252530
ding 252166
ko 252075
ki 251646
presented 251646
appear 251227
growing 250756
sts 250581
purpose 250520
ha 250288
reading 250272
join 249448
miss 249302
sleep 249220
spring 249192
ordered 249173
retired 249162
simple 248861
ram@@ 248580
share 248189
letter 248123
goals 247999
lee 247914
anna 247880
serve 247630
commander 247604
needs 247583
super@@ 247569
ard 247564
workers 247487
overall 247375
appears 247091
seeing 246744
whatever 246741
ran@@ 246545
beach 246522
seems 245523
recording 245225
individuals 244993
1988 244897
referred 244753
score 244717
virginia 244448
offer 244342
normal 244336
ze 244093
ex@@ 244064
fifth 244026
neck 243871
rule 243871
influence 243802
cities 243631
headed 243565
path 243556
nations 243482
shook 243389
choice 243260
val@@ 243129
authority 243101
paid 242991
sel@@ 242939
prime 242882
tower 242746
islands 242680
id 242643
walls 242627
slightly 242385
gate 242241
russia 242183
tom 242134
democratic 242015
mis@@ 242007
joseph 241964
dad 241953
ness 241947
ed@@ 241896
okay 241854
charge 241672
removed 241624
troops 241344
walking 241137
ville 240900
daily 240886
ou@@ 240596
crew 240539
pretty 240475
multiple 240452
stadium 240448
basketball 240241
earned 239973
tracks 239949
tor@@ 239716
christ 239436
matches 239256
latter 239202
congress 239187
ay@@ 239083
amount 238973
gas 238863
jewish 238248
ing@@ 238188
levels 238161
leaves 238119
holy 238107
save 237896
broken 237860
irish 237633
ahead 237518
numbers 237397
martin 237122
planned 237113
fingers 237096
assistant 236968
legs 236712
closer 236700
shi@@ 236334
officers 236307
conditions 236158
notable 236078
branch 235982
ys 235786
quality 235754
soul 235690
broke 235474
je@@ 235328
visit 235073
war@@ 234679
screen 234421
growth 234308
pre 234200
us@@ 233991
chi@@ 233871
tar@@ 233867
ey 233552
florida 233507
code 233363
mainly 233356
acting 233309
mass 233176
israel 233031
1987 232945
pop 232921
recently 232892
evening 232823
isn 232769
positive 232639
ite 232551
image 232531
border 232517
memory 232401
build 232181
ve 231945
ism 231709
revealed 231696
stations 231667
chart 231591
cars 231575
sam 231207
é 231107
mac@@ 231099
easy 231084
pal@@ 230938
watching 230929
smaller 230716
weight 230707
picked 230631
junior 230619
activity 230607
extended 230514
defense 230386
sar@@ 230362
products 230356
il 230333
provides 230255
sorry 230205
safe 230020
replied 229824
secret 229790
louis 229788
1986 229758
stepped 229637
min@@ 229347
questions 229292
remain 228832
baby 228730
sons 228682
highly 228587
ent@@ 228450
chairman 228442
vice 228392
san@@ 227655
ben 227518
judge 227429
approach 227162
teacher 227058
treatment 226890
engineering 226698
expression 226543
gra@@ 226322
1984 226198
composed 226115
intended 225462
ator 225390
60 225198
travel 224840
bishop 224827
1st 224574
windows 224251
ang@@ 224133
boat 223828
article 223520
fo@@ 223425
prison 223374
don@@ 223287
tr@@ 223036
color 222966
sides 222934
acquired 222913
minor 222823
ly@@ 222768
mat@@ 222764
potential 222739
agreement 222646
lan@@ 222581
gen@@ 222515
1985 222465
faith 222309
del@@ 222268
ent 222057
que 221948
rules 221833
territory 221708
seem 221288
1980 221240
wales 220966
elements 220795
pressure 220704
powerful 220427
proposed 220421
shortly 220226
genus 220033
estate 219744
ham 219733
dar@@ 219674
drama 219609
19th 219554
ded 219309
seasons 219193
taught 219144
kitchen 219136
cells 219130
cre@@ 219125
parish 218955
exactly 218795
dog 218491
mentioned 218429
fe@@ 218047
begin 218044
sing 218028
accepted 217861
machine 217801
thoughts 217728
perfect 217392
block 217382
firm 217020
creek 216982
baseball 216894
turning 216874
effects 216777
effort 216775
ye 216700
garden 216678
vo@@ 216640
iron 216517
spain 216497
spot 216435
producer 216427
cancer 216281
serious 216263
newspaper 216192
nice 216171
broadcast 215994
men@@ 215933
necessary 215906
contact 215784
ir 215704
gives 215631
yo@@ 215541
super 215394
yard 215205
ga 214775
host 214739
produce 214738
gets 214593
global 214389
risk 214343
safety 214320
farm 214292
mel@@ 213964
nor 213765
destroyed 213741
note 213732
pacific 213559
graduated 213406
fer@@ 213393
pennsylvania 213235
noticed 213004
britain 212983
pushed 212752
ministry 212740
editor 212707
digital 212641
constructed 212539
golden 212324
percent 211956
settled 211793
han@@ 211739
realized 211691
consists 211508
vote 211140
easily 211119
1983 211079
online 210825
escape 210768
tra@@ 210554
prize 210262
function 209948
grade 209908
strength 209891
seconds 209863
journal 209753
write 209698
account 209489
bor@@ 209420
efforts 209137
search 209091
ster 209091
q 209060
speaking 209007
alongside 208989
tells 208984
yellow 208717
1982 208674
losing 208615
types 208562
promoted 208504
actor 208490
ny 208467
corps 208415
14@@ 208370
none 208220
younger 208079
bre@@ 207984
brain 207972
tive 207940
finish 207920
campus 207682
page 207631
beat 207546
animals 207460
sit 207413
up@@ 207392
huge 207341
pen@@ 207303
protection 207124
twice 207104
leaders 207088
spread 206734
del 206718
unable 206668
edward 206536
dream 206527
mag@@ 206510
compared 206502
champion 206440
learning 206396
hal@@ 206187
emperor 205723
mayor 205704
issued 205607
yourself 205580
environment 205552
sti@@ 205519
lin@@ 205455
picture 205366
olympics 205291
rich 205279
regiment 205098
storm 205096
elections 205055
recognized 205050
primarily 204814
reality 204740
1979 204532
competed 204394
far@@ 204365
basis 204340
damage 204271
200 204247
suggested 203888
officially 203860
un 203822
lie 203523
initial 203418
administrative 203166
mil@@ 203147
marine 203066
learn 202935
1972 202840
projects 202824
mike 202815
1980s 202663
actions 202653
equipment 202636
ben@@ 202464
ali@@ 202111
pair 201997
scientific 201523
freedom 201465
mountains 201421
ser@@ 201357
formation 201299
fu@@ 201273
becomes 201170
label 201062
enemy 200854
frank 200681
az@@ 200606
happen 200195
hurt 200156
mixed 200065
dutch 199916
owner 199808
fields 199610
mom 199477
asia 199417
bottom 199406
creation 199348
price 199284
text 199271
exchange 199269
ong 198667
latin 198660
oc@@ 198462
eu@@ 198381
card 198309
analysis 198289
sight 197969
telling 197940
ker 197883
tre@@ 197824
scale 197752
yards 197689
laid 197688
ze@@ 197670
transferred 197606
et@@ 197560
teaching 197422
poland 197419
1976 197414
ano 197414
pieces 197149
humans 197131
ach@@ 196759
1981 196750
1974 196742
concept 196694
bodies 196627
residents 196567
transport 196549
plants 196477
stared 196450
connected 196417
slow 196363
receive 196126
advanced 195956
product 195951
lands 195886
1945 195822
jones 195733
gr@@ 195710
ins 195661
heat 195615
1970 195532
ally 195521
ill 195479
hel@@ 195435
trial 195341
ari@@ 195228
ham@@ 195158
agent 195009
1968 195007
hol@@ 195007
returning 194979
? 194939
iii 194871
typically 194803
wants 194795
ce 194788
magic 194785
1975 194753
laws 194685
flying 194497
protect 194443
2nd 194409
sort 194293
1970s 194274
bri@@ 194264
secondary 194099
1978 194007
traffic 193891
joe 193849
ters 193817
divided 193687
gal@@ 193630
animal 193622
za 193547
pointed 193546
li 193467
berg 193454
carolina 193442
occurred 193368
birth 193355
touch 193355
bought 193112
loved 193054
contemporary 192797
13@@ 192674
20th 192458
tax 192437
hockey 192404
rise 192383
focused 192327
singles 192319
80 192298
10@@ 192296
vision 192256
settlement 192185
warm 192170
entrance 192100
sen 192039
appearances 192030
zed 191993
organized 191986
kids 191940
steps 191778
prominent 191658
critical 191577
pa 191550
academic 191473
explained 191283
mrs 191281
racing 191277
surrounding 191194
rec@@ 191153
ends 191152
learned 191119
murder 191081
titled 191075
scott 191074
lam@@ 191072
nu@@ 191072
grabbed 191019
ss 190986
capacity 190984
urban 190855
defeat 190786
va@@ 190724
corporation 190664
link 190562
sed 190548
candidate 190408
drew 190360
mount 190277
laughed 190262
chosen 190212
impact 190166
scotland 190157
knows 190137
boston 190076
soft 189963
buried 189958
existence 189899
thank 189891
fleet 189848
agency 189822
faced 189786
industrial 189716
combined 189705
operating 189672
method 189475
1@@ 189175
knowing 189149
tes 189121
split 189078
strange 189019
ties 188955
affairs 188951
coffee 188940
grant 188860
literature 188769
planning 188754
keeping 188744
weapons 188737
declared 188727
platform 188715
bro@@ 188640
ca 188495
hor@@ 188453
dedicated 188443
ban@@ 188328
leadership 188170
content 188032
driver 187940
formerly 187935
ray 187856
acts 187716
carry 187665
1973 187572
suffered 187491
gained 187473
opportunity 187422
35 187352
avenue 187230
commonly 187174
entertainment 187013
fought 186952
ja 186817
kh@@ 186805
ti 186788
setting 186725
wal@@ 186721
captured 186692
enter 186662
assigned 186582
reserve 186505
1977 186495
armed 186439
heads 186390
website 186326
refused 186264
empty 186175
ata 186142
win@@ 185907
albums 185795
wild 185749
sur@@ 185638
claim 185623
ev@@ 185395
francisco 185350
purchased 185336
honor 185332
ai 185328
haven 185178
lieutenant 185149
resources 185131
anti@@ 185001
500 184966
90 184961
han 184958
col@@ 184845
tears 184789
calling 184773
disease 184722
evil 184522
continues 184500
ff 184497
eat 184457
bra@@ 184413
avoid 184345
shut 184332
generation 184312
shared 184221
1971 184184
1969 184160
johnson 184059
steel 184042
tall 183986
clothes 183938
dry 183591
pl@@ 183562
aged 183436
daniel 183401
cr@@ 183293
republican 183257
conducted 183249
alive 183229
guess 183135
yeah 182959
crime 182950
hy@@ 182901
pick 182764
software 182709
ocean 182684
electric 182557
drug 182537
anyway 182529
ste@@ 182524
dan 182355
applied 182343
joint 182319
lin 182130
sen@@ 181905
sin@@ 181865
powers 181804
70 181797
message 181616
apart 181583
zone 181549
determined 181368
mad@@ 181359
res 181299
founder 181271
af@@ 181106
mm 181044
basic 181004
ies 180951
shop 180943
ep@@ 180911
1967 180877
ty@@ 180836
bl@@ 180815
possibly 180694
crowd 180598
offers 180528
ie 180393
doors 180387
beside 180328
understanding 180175
neither 180054
pro 180028
trip 180001
participated 179939
1990s 179900
senate 179841
facilities 179600
stock 179560
unique 179518
1960s 179481
sil@@ 179326
leg 179294
naval 179234
begins 179225
bo 179218
shirt 179213
renamed 178967
duke 178799
pol@@ 178593
elizabeth 178559
painting 178503
thirty 178488
ken@@ 178329
widely 178323
net 178001
tions 177897
allowing 177813
bag 177804
winner 177777
positions 177728
quick 177696
supposed 177562
adopted 177524
communities 177514
draw 177420
williams 177317
quarter 177257
bc 177228
handed 177209
develop 177164
largely 177105
confirmed 177083
planet 176854
and@@ 176744
sexual 176737
um@@ 176700
ff@@ 176657
partner 176645
comedy 176560
clubs 176535
follows 176408
alexander 176328
drink 176275
sounds 176245
polish 176082
sydney 176011
anger 175879
passing 175705
ending 175667
ell 175627
semi 175568
letters 175528
medicine 175486
wearing 175468
clearly 175331
reports 175310
ig@@ 175275
sources 175160
12@@ 175139
sets 175116
guitar 175091
religion 175036
opera 175020
rugby 174965
bs 174800
supreme 174772
ara 174753
gre@@ 174717
michigan 174669
wil@@ 174633
memorial 174561
claims 174545
silence 174449
headquarters 174318
bird 174278
identified 174256
palace 174161
ken 174139
1964 174133
ry 174100
bright 174018
featuring 173924
shape 173877
quiet 173834
fair 173793
ky 173492
languages 173416
clean 173133
sha@@ 172944
classes 172806
parties 172737
chris 172710
relations 172665
wish 172651
sam@@ 172605
falls 172507
vehicle 172410
jersey 172312
ages 172300
wh@@ 172296
stayed 172251
iran 172201
mas@@ 172132
columbia 172085
ens 172022
lights 172016
check 171967
32 171891
reaching 171833
internet 171821
ob@@ 171778
streets 171631
finding 171630
technical 171630
inspired 171588
sales 171569
id@@ 171550
challenge 171482
mann 171474
ak 171444
audience 171357
newly 171320
ber 171279
ity 171261
reasons 171192
reviews 171179
ses 171173
ger 171101
granted 170926
bbc 170922
reduced 170726
sites 170682
av@@ 170569
supply 170497
marked 170394
conversation 170364
unknown 170261
flow 170251
serves 170221
models 170212
the@@ 170029
ali 169938
1965 169899
45 169747
ino 169728
thanks 169706
ked 169677
ohio 169676
tion 169670
providing 169567
est@@ 169506
victoria 169449
dy 169299
allows 169283
ls 169207
creating 169118
ron 169077
opposite 169070
prepared 169013
ale 169007
cam@@ 168943
defined 168918
estimated 168866
twelve 168806
turns 168738
send 168669
rail 168615
mental 168500
scottish 168500
unlike 168490
interview 168449
gs 168398
dress 168338
ideas 168241
sport 168207
flat 168184
mer 168108
intelligence 168092
1966 168075
ani 167974
principal 167973
facility 167956
cap@@ 167791
ders 167781
missing 167584
ski 167456
deputy 167454
os@@ 167362
brand 167286
core 167278
ker@@ 167212
sword 167162
usa 167160
wave 166992
resulted 166960
lose 166955
squadron 166944
attacks 166858
trouble 166803
infantry 166759
georgia 166562
£ 166308
rear 166271
aid 166226
connection 166191
ward 166144
rome 166131
tone 166127
killing 166119
critics 165962
1944 165897
guns 165812
roof 165781
jim 165779
roles 165684
tam@@ 165672
interested 165534
volume 165468
notes 165441
ously 165348
condition 165250
orders 165227
politics 165225
attacked 165130
seats 164975
solo 164758
1960 164725
á@@ 164618
sixth 164501
zi@@ 164460
max 164445
citizens 164432
guest 164418
organizations 164389
holds 164339
independence 164317
jr 164244
respectively 164202
jean 164135
kin 164100
calls 163999
ish 163918
theater 163760
dec@@ 163646
wine 163502
effective 163367
3rd 163327
target 163302
revolution 163054
bas@@ 162975
rain 162892
ji 162822
ary 162816
figures 162686
tal@@ 162502
extra 162474
kal@@ 162470
township 162327
tradition 162270
railroad 162265
etc 162137
driving 162126
dr@@ 162082
expanded 162079
von 162077
existing 162056
birds 161972
moon 161810
ry@@ 161773
visited 161764
lane 161665
ur 161661
ore 161529
thousand 161495
ant@@ 161454
hole 161424
cl@@ 161363
thick 161347
prevent 161332
situated 161289
ash@@ 161226
lock 161167
pr@@ 161143
respect 161129
combat 161116
weather 161071
draft 160940
causing 160919
christmas 160880
motion 160803
fre@@ 160802
berlin 160672
format 160668
exist 160608
ics 160528
heritage 160501
jackson 160435
register 160411
answered 160379
tro@@ 160356
hosted 160323
andrew 160275
designated 160230
pat@@ 160180
bon@@ 160137
task 160125
speech 160082
du 160064
politician 160027
fiction 159951
wa 159950
my@@ 159877
fc 159811
pin@@ 159768
bob 159743
dinner 159651
anne 159414
concert 159381
fun 159308
performing 159279
ven@@ 159269
gun@@ 158934
liberal 158892
desk 158875
opposition 158819
throat 158773
bell 158651
resulting 158640
tonight 158570
authorities 158482
indeed 158476
perform 158466
drop 158362
occupied 158228
greatest 158188
entirely 158099
ang 157995
kin@@ 157925
materials 157905
steve 157875
consider 157788
shed 157769
bowl 157702
air@@ 157688
otherwise 157605
relief 157595
ble 157510
labor 157477
uncle 157468
sw@@ 157392
ride 157315
titles 157292
selling 157239
pri@@ 156978
tie 156952
pull 156947
patients 156881
officials 156841
relatively 156839
kiss 156813
entry 156812
journey 156690
injury 156530
frequently 156463
rank 156442
gri@@ 156429
architecture 156403
gro@@ 156336
che@@ 156256
bear 156119
attempted 156083
silent 156068
duty 156057
ines 155987
+ 155965
labour 155908
certainly 155854
economy 155771
remembered 155744
waited 155648
nose 155626
desire 155500
catch 155423
surprised 155260
grey 155251
ac 155231
scoring 155194
ultimately 155102
alex 155059
ston 155009
1963 154951
star@@ 154903
sun@@ 154860
sciences 154846
ranked 154711
reference 154522
teeth 154450
nuclear 154354
adam 154328
1962 154286
fl@@ 154239
mul@@ 154178
drawn 154076
surprise 154024
ay 154022
nominated 154016
1942 153985
housing 153983
methods 153981
alternative 153951
guys 153939
invited 153914
conflict 153911
premier 153889
apparently 153856
ada 153753
episodes 153732
sunday 153723
grow 153719
obtained 153719
heavily 153707
frame 153602
ori@@ 153537
darkness 153506
thin 153504
4th 153486
ai@@ 153480
statement 153471
theme 153402
fans 153400
climate 153293
leaned 153285
explain 153271
atlantic 153239
showing 153235
fly 153224
apartment 153160
count 153079
threw 153045
distribution 153002
finger 152983
cy@@ 152897
doubt 152872
negative 152838
regions 152815
permanent 152804
trail 152790
kong 152776
suit 152749
dra@@ 152648
portion 152345
ek 152335
details 152305
shoulders 152186
fit 151896
cur@@ 151874
difference 151841
ically 151808
starts 151720
trained 151706
wooden 151614
fox 151605
fresh 151569
violence 151564
tan@@ 151552
adult 151488
hen@@ 151413
constitution 151393
dor@@ 151243
attempts 151223
ment 151125
regarding 151037
chamber 151002
representatives 150999
sarah 150976
cd 150856
actress 150803
santa 150784
carrying 150780
shing 150679
controlled 150621
accept 150589
tin 150587
cricket 150539
educational 150523
display 150491
arrested 150462
illinois 150450
billion 150436
1948 150433
environmental 150386
ati@@ 150295
succeeded 150099
lar@@ 150058
achieved 149978
crown 149868
1941 149803
pilot 149793
buy 149738
ence 149695
wondered 149670
rooms 149626
1940 149583
besides 149541
all@@ 149506
nor@@ 149433
representative 149415
aware 149384
phase 149347
universe 149318
asian 149317
champions 149308
pool 149294
pur@@ 149214
ani@@ 149199
hills 149155
afraid 149126
abandoned 149036
row 149035
skills 149013
kan@@ 148934
inc@@ 148858
circle 148851
chain 148820
sol@@ 148788
fund 148780
beneath 148585
transfer 148542
sell 148465
notice 148413
asking 148400
plus 148274
shi 148259
americans 148243
trains 148170
address 148135
eric 148094
footballer 148031
oldest 147987
mobile 147914
jazz 147796
ying 147785
rare 147761
cro@@ 147656
chose 147639
tel@@ 147571
hearing 147540
internal 147536
performances 147497
ss@@ 147110
subsequent 147081
hong 147052
nar@@ 147016
ear 146935
tw@@ 146830
olympic 146794
cas@@ 146791
inner 146789
cemetery 146777
ass 146758
1946 146614
brief 146603
falling 146583
approved 146575
concerned 146450
identity 146414
receiving 146409
conservative 146311
ro 146293
65 146286
ex 146083
increasing 146065
sweet 146040
massachusetts 146002
pictures 146002
1961 145867
versions 145862
covers 145849
lying 145834
cat 145820
rolled 145535
imperial 145527
interior 145488
stuff 145478
ful 145452
2020 145398
investigation 145398
1939 145285
ching 145259
origin 145258
trans@@ 145229
cat@@ 145203
plane 145177
contained 145149
orange 145112
yu@@ 145078
afternoon 145072
lifted 145014
finals 144885
1943 144881
toronto 144825
ash 144776
vel@@ 144665
sought 144640
glanced 144478
closely 144422
vehicles 144394
char@@ 144282
korea 144264
reaction 144168
est 144001
33 143969
funding 143962
1956 143900
communist 143868
supporting 143810
micro@@ 143722
guards 143678
bury 143545
factory 143506
squad 143506
sy@@ 143433
brigade 143424
promotion 143391
writers 143390
income 143385
tom@@ 143368
articles 143364
dun@@ 143264
finds 143248
si 143038
colonel 143006
spiritual 142963
taylor 142942
classic 142936
flowers 142842
listen 142818
northwest 142785
height 142614
ative 142595
harry 142543
gor@@ 142540
ance 142510
sh 142498
ver 142419
var@@ 142296
worry 142221
snow 142108
wonder 142088
barely 142036
application 141988
maria 141987
centuries 141959
bat@@ 141894
counter 141838
pakistan 141833
wilson 141771
gain 141766
thousands 141675
1950 141665
rick 141638
1947 141606
ster@@ 141585
communication 141545
struck 141506
philosophy 141348
specifically 141267
dressed 141218
peak 141196
classical 141184
truck 141183
cra@@ 141169
tony 141084
observed 140812
fame 140745
criminal 140714
somewhere 140697
stands 140668
proved 140637
bil@@ 140632
1958 140612
battalion 140585
worse 140390
fa 140363
grace 140321
briefly 140269
failure 140232
background 140115
entitled 140079
strike 140079
alliance 140070
spend 140070
ica 140006
signal 139998
philadelphia 139874
jews 139824
passenger 139820
tur@@ 139805
developing 139791
graduate 139704
villages 139537
crossed 139519
75 139493
ingly 139485
gam@@ 139256
1959 139225
arthur 139121
bronze 139040
36 139025
simon 138995
dean 138992
ality 138952
starring 138938
convention 138937
programme 138915
sector 138893
progress 138775
chemical 138742
tomorrow 138687
usual 138540
southeast 138482
resistance 138470
employed 138425
object 138300
ei@@ 138297
swedish 138287
grown 138271
gallery 138179
gene 138110
shaped 138105
brazil 138076
launch 138074
images 138042
extensive 137661
containing 137580
sta@@ 137567
ov 137559
bound 137537
ini 137416
unless 137378
standards 137376
nick 137345
fired 137329
wings 137304
incident 137257
approached 137184
gray 137175
helping 137038
inc 137025
1957 136999
ri 136922
equal 136877
homes 136756
express 136748
missed 136721
cool 136622
pel@@ 136608
mur@@ 136595
hidden 136593
ves 136503
34 136435
dy@@ 136435
experienced 136395
structures 136368
advantage 136111
teachers 136046
publication 135966
commissioned 135956
faculty 135952
importance 135908
singing 135898
forth 135825
stomach 135822
literary 135781
temperature 135724
sia 135717
ola 135702
son@@ 135696
municipal 135681
ontario 135667
tor 135641
ns 135578
angry 135527
fashion 135399
opposed 135360
fuel 135342
burn 135316
hoped 135186
moments 135076
credit 135068
districts 135036
breaking 135014
orchestra 134944
institutions 134893
restaurant 134885
ney 134803
fr@@ 134791
documentary 134534
horses 134532
leads 134483
hi 134467
painted 134467
offices 134444
ann@@ 134429
narrow 134393
i.e 134361
defence 134305
items 134230
wear 134209
fin@@ 134208
gaze 134177
founding 134166
vi 134156
au 134125
expressed 134063
drove 134043
black@@ 134028
bringing 134020
tight 133977
brian 133973
decades 133901
mi 133890
putting 133866
hand@@ 133861
por@@ 133839
attached 133801
retirement 133789
extremely 133717
manner 133657
typical 133635
represent 133633
roads 133530
pope 133497
dragon 133455
properties 133381
ama 133274
kil@@ 133230
examples 133221
head@@ 133188
votes 133180
cri@@ 133094
multi 133070
e.g 132993
plate 132964
dangerous 132936
em 132924
gan 132896
actual 132882
bible 132743
muslim 132662
tt 132618
engaged 132613
ky@@ 132562
map 132475
fixed 132404
land@@ 132375
category 132345
staring 132340
sk 132285
300 132268
worldwide 132246
shore 132219
ade 132195
ical 132192
1955 132157
concern 132098
facing 132087
mill 132022
1949 131982
charged 131918
grounds 131889
1950s 131878
oxford 131838
truly 131826
liked 131815
expansion 131803
priest 131785
protein 131732
funds 131725
towns 131716
assumed 131640
landing 131560
ear@@ 131493
ery 131456
she@@ 131409
accident 131408
dating 131388
federation 131380
handle 131290
sto@@ 131246
derived 131209
poetry 131172
38 131082
sharp 131052
influenced 131005
behavior 130905
maximum 130904
sha 130889
device 130888
massive 130873
stream 130856
weekly 130844
domestic 130788
surrounded 130752
choose 130731
gen 130693
changing 130690
feelings 130671
ol 130634
1952 130453
northeast 130425
poly@@ 130415
jason 130348
educated 130340
ce@@ 130287
exhibition 130251
tt@@ 130225
guide 130215
establishment 130200
netherlands 130125
red@@ 130097
views 130056
aside 129973
collected 129962
combination 129958
finishing 129956
ji@@ 129843
ors 129750
hired 129699
rising 129695
occur 129693
mp 129688
communications 129676
copies 129547
ane 129510
1954 129490
aired 129453
joining 129400
threat 129386
5th 129354
understood 129314
sale 129305
successfully 129230
faces 129194
bla@@ 129190
advance 129186
tru@@ 129106
electronic 129090
ala 129049
functions 129006
consisted 128983
churches 128949
els 128878
request 128878
dam 128795
scheduled 128790
causes 128787
converted 128785
len@@ 128758
dates 128756
bands 128734
banks 128730
producing 128701
somehow 128680
ther@@ 128671
vol@@ 128659
fal@@ 128606
agricultural 128568
ceremony 128564
camera 128559
korean 128556
employees 128411
fri@@ 128355
tied 128337
jan@@ 128326
tiny 128298
davis 128286
impossible 128285
beauty 128275
mexican 128246
heaven 128171
ann 128149
giant 128096
legislative 128054
pocket 128048
scenes 127999
familiar 127981
values 127940
ase 127795
dale 127786
non@@ 127782
loud 127778
regarded 127716
ington 127706
eg@@ 127674
gil@@ 127673
mile 127613
ow@@ 127575
ura 127545
shooting 127434
stephen 127393
1953 127375
web 127332
locations 127228
establish 127060
mus@@ 127036
pressed 126986
responsibility 126985
tries 126973
billboard 126957
recognition 126717
ears 126674
sm@@ 126670
investment 126388
stairs 126332
weapon 126328
promise 126305
attorney 126279
improve 126241
sr 126237
bass 126201
neighborhood 126187
maintained 126167
tea 126144
37 126136
hom@@ 126057
stra@@ 125943
noise 125920
demand 125878
kings 125871
francis 125823
uni@@ 125729
passes 125700
canal 125617
ot 125561
somewhat 125553
bone 125547
treaty 125544
households 125517
fm 125474
presidential 125452
emergency 125447
seventh 125429
publishing 125387
cape 125352
ep 125316
ath 125180
1918 125154
engineer 125142
sor@@ 125134
ats 125088
sin 125049
papers 125036
soccer 125013
princess 125000
ena 124913
grass 124819
42 124521
objects 124367
covering 124290
broad 124190
solid 124146
oo@@ 124133
ered 124105
contributed 124076
sweden 124044
lat@@ 124000
ators 123867
patrick 123856
maintain 123783
injured 123775
representing 123706
kid 123616
tank 123600
whispered 123566
sub 123557
purchase 123539
cel@@ 123511
shit 123486
chi 123294
studios 123294
selection 123220
sees 123185
proper 123135
ryan 123114
cave 123111
friendly 123097
weren 123063
capable 123059
provincial 122996
stores 122976
zer 122975
bio@@ 122949
bol@@ 122860
admitted 122859
circuit 122827
locked 122790
balance 122766
chapel 122611
dam@@ 122550
lewis 122491
matt 122478
1951 122439
fore@@ 122418
burg 122373
coat 122347
jane 122326
carefully 122322
incorporated 122287
affected 122262
folk 122184
waters 122135
tropical 122097
visual 122084
borough 122043
raise 122012
rolling 121996
refers 121967
roll 121928
tail 121922
kers 121898
sisters 121849
survived 121820
signs 121778
architect 121764
user 121737
occurs 121723
cla@@ 121705
str@@ 121666
committed 121544
patient 121524
biggest 121517
wore 121371
argued 121277
hoping 121259
spoken 121254
brick 121225
southwest 121208
alism 121200
fallen 121075
woods 120993
ping 120975
zing 120972
contest 120958
goods 120953
ini@@ 120925
18th 120918
enjoyed 120916
add 120912
hung 120877
saved 120723
jo 120680
sighed 120559
lyrics 120552
1938 120539
bun@@ 120505
š@@ 120492
forever 120454
institution 120385
6th 120350
wheel 120348
introduction 120308
dae 120291
hundreds 120168
stu@@ 120152
disappeared 120063
tunnel 120060
cer@@ 120059
ridge 120024
fruit 119888
400 119870
residence 119830
charlie 119769
kat@@ 119718
drawing 119695
opinion 119681
alan 119660
interesting 119617
offering 119544
lit 119502
stones 119499
crossing 119472
ita 119456
bedroom 119447
1936 119439
interests 119401
pe 119374
sho@@ 119365
dan@@ 119337
mention 119335
kam@@ 119324
piano 119289
metres 119277
ban 119271
qualified 119266
sy 119231
normally 119172
invasion 119168
vis@@ 119147
pulling 119053
forming 119047
sand 118996
allah 118968
egypt 118912
ric@@ 118844
delivered 118779
motor 118749
budget 118702
hide 118602
arranged 118506
concluded 118438
asks 118381
session 118342
anymore 118336
1920 118315
ning 118260
su 118239
survey 118232
wedding 118230
bru@@ 118217
programming 118196
comic 118170
users 118100
vin@@ 117983
cop@@ 117891
broadcasting 117881
7th 117836
improved 117836
arrival 117817
ili@@ 117815
shock 117789
cabinet 117678
turkey 117639
mun@@ 117618
dia 117579
formal 117555
fan 117519
gift 117517
downtown 117434
wake 117386
dic@@ 117384
jumped 117369
metropolitan 117369
promote 117250
costs 117237
hey 117210
meanwhile 117210
cycle 117189
constant 117144
las 117138
ned 117118
protected 117058
dna 117014
crisis 116971
seek 116942
ire 116909
measure 116899
pra@@ 116860
48 116803
2.@@ 116775
whilst 116759
owners 116743
ruled 116738
mol@@ 116704
wel@@ 116649
cathedral 116625
melbourne 116524
tis 116519
contain 116443
athletic 116366
treated 116322
ok 116291
bachelor 116280
cards 116171
miller 116097
ira 116068
acted 116064
plot 116056
suffering 116029
41 115978
ā@@ 115944
tired 115879
fill 115861
khan 115845
regularly 115845
installed 115816
stating 115807
sion 115792
factor 115722
feed 115714
bi 115712
ents 115701
jan 115677
mo 115669
zo@@ 115538
busy 115473
ó@@ 115466
require 115429
colonial 115428
ä@@ 115412
attend 115409
55 115275
flag 115266
44 115163
paintings 115093
by@@ 115072
household 114995
kel@@ 114995
47 114992
sick 114992
pp@@ 114909
personnel 114882
yn 114773
1937 114759
registered 114728
shadow 114725
matters 114700
loan 114686
laugh 114621
benefit 114604
angel 114552
enjoy 114549
calm 114509
smoke 114491
separated 114474
crazy 114454
pack 114439
dro@@ 114384
decide 114368
reduce 114367
eli@@ 114344
forget 114285
ton@@ 114285
wrestling 114176
stan 114161
fighter 114106
voted 114004
cambridge 113983
accompanied 113950
1919 113890
ved 113868
journalist 113860
reform 113795
imagine 113787
driven 113786
universal 113782
tongue 113763
underground 113746
vietnam 113686
wet 113662
moscow 113659
solution 113573
mirror 113529
luke 113520
operate 113503
dreams 113466
coal 113451
artillery 113424
engines 113419
sta 113366
wars 113328
determine 113305
wounded 113264
responded 113255
transportation 113220
van@@ 113193
ensure 113067
assistance 113052
fy 113047
mining 113034
wrapped 113018
refer 112987
hits 112961
stein 112950
resigned 112929
worst 112872
dal@@ 112815
lo 112813
ised 112739
belt 112736
dri@@ 112715
ars 112624
dre@@ 112611
soldier 112603
testing 112557
secure 112543
weak 112475
agriculture 112414
aw@@ 112397
realize 112363
dur@@ 112346
damaged 112300
ily 112291
capture 112289
saturday 112261
courses 112245
techniques 112237
1917 112232
flew 112097
fur@@ 112073
worried 112071
landed 112044
clo@@ 112030
pattern 112026
gently 112008
creative 111991
amongst 111979
willing 111969
wolf 111910
entering 111902
obviously 111878
extension 111873
fifteen 111862
rocks 111840
sis 111735
races 111692
distinguished 111548
sections 111502
obvious 111493
pur 111444
afterwards 111412
manchester 111367
gathered 111353
applications 111352
alized 111348
islamic 111343
1914 111336
í@@ 111293
rescue 111212
discovery 111074
hunter 111067
fla@@ 110959
plain 110945
arena 110844
cul@@ 110842
accused 110828
factors 110785
1930 110766
charges 110677
ering 110647
merged 110633
visible 110629
partnership 110609
decade 110593
burning 110546
candidates 110540
aren 110513
confused 110448
branches 110382
iv 110321
turkish 110279
describes 110276
file 110274
eating 110252
sey 110213
joy 110194
albert 110191
soil 110161
consecutive 110097
earl 110096
andy 110043
tin@@ 110025
fishing 110013
medium 109949
vil@@ 109877
64 109871
52 109866
weekend 109862
severe 109837
profit 109835
beer 109778
whit@@ 109761
sounded 109690
composer 109653
dynasty 109616
throw 109615
hat 109612
strategy 109605
insurance 109577
eleven 109544
continuing 109533
39 109493
danger 109473
new@@ 109454
ella 109441
poet 109416
childhood 109395
pure 109367
walter 109358
talked 109351
pon@@ 109347
businesses 109264
arab 109256
distributed 109234
ny@@ 109233
ft 109149
fifty 109144
water@@ 109141
contrast 109134
ach 109130
kansas 109054
1935 109047
mounted 109039
ku 109026
consisting 108968
occasionally 108855
concrete 108806
lap 108750
im 108658
degrees 108570
ches 108445
norway 108425
dave 108396
gn@@ 108382
nfl 108382
qui@@ 108258
heading 108196
cash 108148
persons 107985
documents 107918
tim 107894
minnesota 107892
organisation 107881
smell 107795
damn 107764
jobs 107718
adjacent 107692
top@@ 107682
jake 107664
push 107656
verse 107575
ari 107568
compete 107522
experiences 107514
sn@@ 107499
jump 107454
billy 107448
historian 107422
expect 107354
ye@@ 107315
mid@@ 107289
ably 107273
courts 107255
stick 107167
tennis 107164
studying 107163
bush 107108
inhabitants 107038
colorado 107029
philippines 107005
ist 106989
appeal 106987
daughters 106892
additionally 106887
passengers 106869
replace 106834
hip 106769
knife 106710
deck 106691
1933 106617
junction 106611
portuguese 106582
ely 106549
may@@ 106515
prayer 106511
bin 106487
duties 106475
mp@@ 106435
desert 106390
pink 106361
flesh 106353
distinct 106352
yn@@ 106352
20@@ 106300
ck 106283
anniversary 106272
option 106254
chin 106136
false 106133
drugs 106113
fel@@ 106083
ron@@ 106052
ched 105971
ole 105946
back@@ 105943
survive 105942
shift 105928
fle@@ 105926
touched 105926
favorite 105919
returns 105892
ell@@ 105868
1929 105841
praised 105830
howard 105820
hanging 105769
relative 105728
eng@@ 105710
boats 105674
notably 105649
threatened 105646
ges 105596
rejected 105577
linked 105561
lawyer 105516
49 105473
measures 105449
adding 105370
achieve 105332
kevin 105282
8th 105269
participate 105238
51 105234
existed 105193
missouri 105135
sudden 105114
forty 105093
tennessee 105090
sand@@ 105061
designs 105053
scholars 105041
0.@@ 105036
hate 105018
quietly 105010
43 104985
dc 104813
stuck 104791
emerged 104784
95 104779
defensive 104775
kim 104769
riding 104765
meters 104719
za@@ 104684
dvd 104672
grandfather 104660
gay 104658
roughly 104645
vit@@ 104562
burned 104550
begun 104543
rivers 104527
closing 104442
surname 104349
knees 104343
00 104277
norwegian 104274
shoot 104213
possibility 104178
steam 104171
unusual 104059
grave 104037
dated 103959
46 103938
correct 103791
bul@@ 103790
belief 103760
ncaa 103729
purposes 103668
app@@ 103664
creature 103661
ming 103659
rice 103555
1934 103552
gan@@ 103544
graphic 103519
associate 103493
ging 103466
storage 103456
universities 103454
yer 103404
circumstances 103396
ee 103393
hero 103385
ona 103342
austria 103301
salt 103249
significantly 103249
sri 103100
glad 103091
terminal 103058
din@@ 103036
wisconsin 102993
subjects 102992
feels 102990
earliest 102979
concerns 102978
promised 102960
instance 102956
pleasure 102952
directors 102903
visiting 102891
hollywood 102872
offensive 102852
unto 102849
victims 102840
warning 102833
favor 102827
horror 102823
waves 102810
0@@ 102809
differences 102776
visitors 102760
constituency 102728
arizona 102717
shu@@ 102715
load 102695
queensland 102633
multi@@ 102572
cry 102566
hum@@ 102545
memories 102502
waste 102484
alice 102482
indiana 102402
passage 102394
nic@@ 102384
end@@ 102354
marie 102337
allen 102303
zz@@ 102294
rapidly 102282
faster 102227
parking 102168
till 102152
samuel 102132
stupid 102104
tools 102019
paused 101992
fil@@ 101979
1928 101942
oregon 101927
expedition 101733
jimmy 101726
advice 101661
destroy 101596
agents 101576
singapore 101572
aspects 101483
spending 101473
shell 101422
= 101384
requires 101361
marks 101355
finance 101344
flu@@ 101336
struggle 101326
teach 101316
stages 101314
pale 101306
sive 101268
temporary 101222
scheme 101216
bureau 101215
ants 101174
tier 101152
useful 101129
hun@@ 101100
tests 101056
prove 101015
kissed 100905
listening 100897
musicians 100846
knight 100844
dd@@ 100808
lunch 100793
mail 100753
agree 100703
represents 100688
productions 100652
west@@ 100585
physics 100559
maryland 100555
bottle 100512
practices 100496
script 100459
clothing 100444
residential 100414
starred 100387
sequence 100356
birthday 100354
eve 100336
matthew 100320
movements 100288
prisoners 100282
devices 100277
kelly 100276
ile 100212
dust 100202
seeking 100195
depending 100100
destruction 100096
nobody 100071
meat 100066
che 100052
colony 100011
lincoln 99985
anthony 99935
sted 99930
ethnic 99811
mode 99772
cloud 99611
py@@ 99611
1930s 99581
happens 99536
tribe 99513
reign 99486
wins 99459
rating 99457
ils 99442
acid 99428
ace 99410
54 99391
colour 99381
tic@@ 99347
repeated 99338
senator 99335
drinking 99318
gods 99231
17th 99229
limit 99210
philip 99187
jacob 99173
iraq 99153
85 99137
context 99068
kor@@ 99064
ine@@ 99057
1922 99011
element 99009
hon@@ 98993
alization 98931
stable 98913
outstanding 98888
1932 98862
ora 98786
easier 98729
diego 98717
zation 98713
dogs 98705
breakfast 98662
ology 98656
reputation 98632
cher 98616
anderson 98597
chase 98582
cousin 98570
53 98555
bran@@ 98553
supplies 98550
welcome 98526
actors 98461
sleeping 98453
bert 98452
ck@@ 98370
bond 98350
authors 98338
fied 98261
appearing 98259
translated 98245
guilty 98244
israeli 98242
boss 98198
switzerland 98101
squ@@ 98091
parliamentary 98078
ram 98055
coastal 98038
wo@@ 97996
whereas 97993
partners 97930
ok@@ 97927
outer 97900
suggests 97856
1924 97829
rush 97811
conservation 97720
gordon 97714
vocals 97652
fire@@ 97608
hydro@@ 97580
wood@@ 97542
breathing 97493
lucky 97471
describe 97464
pic@@ 97462
surgery 97422
ea@@ 97408
mate 97371
string 97370
ae 97367
seriously 97326
1927 97303
chan@@ 97291
logical 97284
vers 97276
dying 97241
form@@ 97187
movies 97184
fred 97163
restored 97104
post@@ 97069
kes 97031
houston 97007
9th 97005
1921 96953
vas@@ 96909
ef@@ 96896
happening 96798
mad 96795
blocks 96771
pm 96752
1912 96729
oni@@ 96690
policies 96690
morgan 96666
adults 96656
accounts 96646
inch 96641
depression 96615
walker 96608
greece 96587
zu@@ 96555
thy 96502
equivalent 96434
marry 96434
yan 96423
exposed 96371
golf 96328
1931 96324
dancing 96303
hamilton 96277
jay 96268
rates 96259
lift 96244
ey@@ 96187
nag@@ 96167
gang 96160
increasingly 96107
flower 96094
panel 96088
cable 96082
superior 96059
sab@@ 96048
operates 96024
gl@@ 96016
sugar 96009
swiss 96007
ho 95924
membership 95860
ys@@ 95845
blade 95826
leg@@ 95764
throne 95648
gradually 95620
collaboration 95591
ot@@ 95569
technique 95566
economics 95527
composition 95511
roger 95488
copy 95465
rapid 95430
marketing 95374
gardens 95369
cook 95350
involving 95347
zes 95332
print 95324
ped 95269
thi@@ 95190
immediate 95184
kon@@ 95182
jer@@ 95180
suicide 95174
speaker 95149
ess 95137
pan 95130
extreme 95121
hat@@ 95091
gran@@ 95051
debate 95000
filed 94965
definitely 94898
vessel 94852
appointment 94835
amy 94826
1,@@ 94796
dies 94767
twin 94750
ł@@ 94743
customers 94686
deeply 94671
cia 94658
alist 94641
indicated 94635
johnny 94619
1916 94573
medieval 94568
remove 94528
amateur 94527
sending 94521
stan@@ 94521
1925 94520
1915 94485
wor@@ 94478
publications 94465
masters 94460
lim@@ 94458
strongly 94393
taste 94393
moves 94374
scientists 94354
sad 94342
ung 94305
bow 94284
solar 94255
swimming 94255
yl@@ 94242
1910 94236
zero 94213
tha 94210
clark 94195
shaking 94193
ged 94163
bach 94157
apple 94139
seed 94137
cher@@ 94117
evolution 94024
° 94016
att@@ 94008
crash 93997
margaret 93985
hood 93970
parallel 93956
counties 93915
retained 93910
carl 93873
1923 93864
slipped 93848
carbon 93814
sentence 93801
ownership 93784
relationships 93780
shopping 93723
contributions 93662
traveled 93640
eighth 93635
instruments 93619
med 93613
ments 93573
commonwealth 93553
anywhere 93546
kentucky 93528
resolution 93524
ah@@ 93514
manage 93459
flows 93458
premiered 93453
approval 93421
cheek 93368
nam@@ 93324
laboratory 93312
som@@ 93241
ross 93235
mac 93208
palm 93166
manufacturing 93145
assault 93125
tel 93019
talent 92968
ich 92945
lor@@ 92913
1926 92900
dol@@ 92879
landscape 92871
violent 92850
mix 92811
translation 92751
á 92730
2,@@ 92684
vs 92677
depth 92665
pad@@ 92661
odd 92615
66 92592
dear 92579
smiling 92572
mit@@ 92487
sl@@ 92487
smooth 92468
16th 92413
processes 92406
divisions 92362
aria 92346
fac@@ 92334
convinced 92294
meetings 92248
ts@@ 92221
occupation 92204
consciousness 92151
jar@@ 92131
suggest 92071
considerable 92063
sat@@ 92057
gates 92056
jordan 92035
powered 92005
routes 91979
elementary 91929
conduct 91911
pages 91892
lit@@ 91851
plastic 91851
gender 91840
cap 91809
mathematics 91766
spell 91700
douglas 91696
emotional 91676
comfortable 91624
appropriate 91623
illegal 91570
1900 91557
moth 91554
commune 91483
ere 91407
tech 91393
ón 91351
sters 91297
nevertheless 91265
elle 91223
markets 91192
hunting 91165
artistic 91126
credited 91082
bones 91026
charity 91014
shifted 91013
corporate 91010
dollars 90927
crystal 90901
letting 90868
trophy 90843
bir@@ 90835
ceo 90810
popularity 90790
slid 90783
musician 90779
discussion 90763
shoes 90756
hunt 90685
bathroom 90662
guests 90654
cho@@ 90615
forests 90601
wonderful 90555
green@@ 90501
57 90496
proof 90321
requirements 90301
merely 90296
ene 90261
personality 90259
gotten 90258
band@@ 90228
fying 90204
sec@@ 90203
shield 90183
harvard 90176
friday 90111
leather 90078
inger 90059
definition 90041
voices 90039
indigenous 90025
tab@@ 90021
employment 90012
decisions 90007
colors 89991
informed 89968
schedule 89962
wealth 89954
beating 89940
legislation 89913
vast 89880
satellite 89867
ick 89861
xi@@ 89856
winners 89822
án 89815
rio 89796
raising 89781
keys 89676
pas@@ 89671
greatly 89660
lion 89630
coalition 89604
tip 89599
miami 89598
essential 89565
recordings 89558
wished 89550
blues 89506
kick 89462
ghost 89340
vic@@ 89331
sum 89316
criticism 89293
enc@@ 89272
criticized 89260
license 89260
formally 89234
replacement 89218
thr@@ 89218
emotions 89139
absence 89121
peninsula 89045
hence 89024
loose 89012
exists 88994
attracted 88974
totally 88930
ain 88903
99 88899
principles 88881
denied 88878
od@@ 88845
allied 88836
benefits 88834
craft 88783
admiral 88779
wanting 88774
roots 88769
worship 88741
roy 88737
signing 88716
males 88697
logy 88680
laughing 88679
strip 88578
novels 88573
identify 88560
lasted 88560
pole 88510
shrugged 88477
ner@@ 88451
frederick 88437
cha@@ 88426
frequency 88419
debuted 88413
rifle 88397
ceiling 88377
tan 88259
hil@@ 88235
domain 88232
meets 88215
fuck 88208
equipped 88207
hosts 88196
divine 88148
ut@@ 88096
fantasy 88076
alabama 88073
clock 88017
yan@@ 87976
cleared 87975
ple@@ 87959
shar@@ 87944
effectively 87914
â@@ 87908
kir@@ 87891
charts 87890
sla@@ 87871
franchise 87819
aunt 87802
nervous 87788
exit 87787
detroit 87785
1911 87776
excellent 87720
bomb 87667
exercise 87638
adventure 87635
cm 87630
ltd 87616
glo@@ 87604
sid@@ 87563
clinical 87544
1913 87506
stress 87498
ws 87409
gy 87399
commanded 87386
rough 87384
proposal 87383
danish 87341
xi 87335
defeating 87334
trading 87330
upset 87304
72 87302
kennedy 87287
ö@@ 87262
aim 87236
external 87233
ure 87223
dublin 87219
sang 87195
sim@@ 87193
ths 87179
moral 87174
ni 87171
surely 87170
printed 87165
careful 87153
juan 87131
down@@ 87130
considering 87102
extent 87094
aimed 87078
abilities 87076
ren 87051
sul@@ 87051
shouted 87033
vessels 87027
components 86981
moore 86965
honour 86952
cad@@ 86929
of@@ 86926
hiding 86888
worn 86876
expensive 86852
wound 86798
pace 86756
networks 86709
gulf 86705
uniform 86663
encouraged 86658
maintenance 86614
jerusalem 86596
electrical 86582
din 86544
classified 86485
ō 86471
log@@ 86439
audio 86426
asleep 86403
angle 86396
socialist 86385
antonio 86342
apply 86285
eri@@ 86281
creatures 86279
practical 86277
bou@@ 86257
wise 86252
permission 86160
orthodox 86143
backed 86133
62 86114
milk 86047
sions 86038
ambassador 86020
description 86000
nie 85976
claiming 85932
hur@@ 85929
unfortunately 85892
missions 85864
cavalry 85848
quebec 85832
tim@@ 85778
fe 85776
flash 85725
tran@@ 85691
protest 85677
oklahoma 85666
victor 85664
bruce 85656
blow 85631
revolutionary 85624
zi 85617
pen 85615
arrest 85609
argentina 85585
poem 85578
boundary 85567
mississippi 85521
discussed 85409
enemies 85358
discuss 85353
č@@ 85327
boards 85322
long@@ 85313
loc@@ 85312
sc 85275
gap 85271
elder 85245
checked 85235
tons 85230
fucking 85224
ble@@ 85149
parent 85138
document 85118
bet 85105
czech 85101
newspapers 85086
fled 85074
forgotten 85058
ottoman 85038
slave 85034
rounds 85029
cutting 85023
thrown 85022
ranking 85021
150 85019
dom@@ 85006
injuries 84986
smart 84981
boo@@ 84961
lists 84953
mar 84951
surviving 84945
fat 84937
rarely 84932
similarly 84908
islam 84884
painter 84864
knocked 84853
opportunities 84852
hay@@ 84828
sting 84823
edited 84798
alcohol 84766
tag 84739
females 84736
commissioner 84698
jeff 84687
diocese 84678
initiative 84662
electoral 84660
fro@@ 84658
confidence 84656
fed 84627
tz 84626
basin 84559
1.@@ 84558
ab 84504
cru@@ 84499
column 84488
abuse 84459
ria 84416
select 84415
ap 84391
sharing 84386
conclusion 84360
successor 84357
austin 84355
tokyo 84352
industries 84346
gru@@ 84298
istic 84280
atlanta 84273
ado 84272
intense 84243
iowa 84222
bag@@ 84200
ela 84189
har 84167
escaped 84145
yed 84123
strategic 84119
puerto 84117
fication 84116
exception 84111
assist 84093
influential 84084
56 84042
inn 84025
awareness 83996
sou@@ 83863
coverage 83847
kent 83836
witness 83822
cs 83795
blind 83787
legend 83777
hungarian 83756
comics 83749
fate 83746
apparent 83744
sel 83738
plu@@ 83621
ula 83606
parks 83597
occasion 83590
celebrated 83575
romantic 83567
ites 83518
1908 83502
funny 83498
12th 83468
sau@@ 83459
rated 83457
declined 83399
centers 83384
ise 83374
oak 83365
val 83347
meal 83319
statue 83277
hardly 83252
styles 83230
belonged 83228
lip 83225
58 83224
climbed 83221
replacing 83210
metro 83194
lawrence 83162
belgium 83161
bin@@ 83157
farmers 83154
argument 83116
pride 83099
modified 83079
cow@@ 83078
naked 83068
bench 83062
backs 83021
cc@@ 83012
rock@@ 82996
charter 82986
bid 82970
detail 82956
edinburgh 82929
louisiana 82887
rac@@ 82884
gh 82860
processing 82859
mechanical 82845
clay 82708
ourselves 82668
minimum 82663
guitarist 82643
denmark 82622
jam@@ 82605
ational 82598
liquid 82547
critic 82546
clan 82533
inf@@ 82485
involvement 82477
wright 82474
monument 82469
struggled 82463
arm@@ 82403
stronger 82373
brazilian 82344
gol@@ 82330
electricity 82314
seattle 82308
abc 82297
losses 82263
adapted 82235
chen 82177
intention 82165
lers 82160
montreal 82138
carter 82125
bow@@ 82111
harris 82046
86 82034
departure 81998
battery 81989
nazi 81988
springs 81985
hang 81955
christians 81943
aviation 81888
designer 81888
hin@@ 81885
dozen 81882
ath@@ 81830
occasions 81825
equ@@ 81824
figured 81815
bad@@ 81781
cinema 81771
hers 81761
pitch 81760
governments 81759
lets 81756
devil 81733
vocal 81728
kur@@ 81725
ukraine 81716
rushed 81651
spo@@ 81649
13th 81645
hop 81609
knee 81582
are@@ 81577
exact 81525
dly 81509
gul@@ 81483
scared 81477
prix 81464
ther 81443
principle 81431
dou@@ 81421
cc 81361
revival 81360
lots 81346
completion 81331
integrated 81305
ades 81292
1,000 81255
recognize 81245
genetic 81221
distant 81210
und 81201
recommended 81187
bears 81163
ads 81104
bent 81039
gary 80985
recovered 80971
limits 80939
leaf 80929
concentration 80907
ving 80865
amazing 80851
russell 80808
anda 80801
nan@@ 80801
advertising 80753
d.c 80733
blu@@ 80731
searching 80722
transition 80643
fault 80636
possession 80634
infrastructure 80604
runner 80557
broadway 80546
therapy 80539
beast 80512
kate 80510
ladies 80499
symbol 80488
tamil 80459
eggs 80446
600 80425
victim 80423
paying 80402
ordinary 80396
executed 80277
arrive 80242
nights 80240
competing 80228
decline 80219
dge 80211
tta 80196
gau@@ 80192
dirt 80182
commented 80153
stri@@ 80130
restoration 80124
chemistry 80113
wy@@ 80109
pun@@ 80058
placing 80037
tics 80019
cle@@ 80008
disc 80008
cited 79974
dominated 79973
funded 79960
rival 79935
wan@@ 79931
holiday 79887
blo@@ 79884
shares 79876
atmosphere 79872
angels 79858
alo@@ 79787
ser 79785
purple 79767
ignored 79690
burst 79660
collections 79627
descent 79620
abbey 79593
detailed 79593
honorary 79585
kicked 79547
atic 79526
cham@@ 79508
61 79502
luck 79486
pushing 79485
competitions 79462
obtain 79433
index 79424
has@@ 79421
67 79418
1905 79406
suppose 79372
ven 79357
ü@@ 79307
button 79283
run@@ 79275
cab@@ 79249
thinks 79215
pul@@ 79193
88 79177
15th 79172
graduating 79164
pointing 79145
latest 79143
pc 79128
perspective 79128
bread 79119
austrian 79097
connecticut 79062
shouldn 79052
lac@@ 79045
berry 79024
tend 79006
gonna 78932
lab 78931
filmed 78928
ese 78923
posted 78921
liverpool 78906
spin 78899
frequent 78871
wer@@ 78870
monastery 78825
hungary 78818
wisdom 78810
sessions 78809
qualifying 78790
sized 78789
kar 78782
monster 78771
viewed 78771
bars 78763
couples 78745
tele@@ 78733
preserved 78728
resident 78672
experimental 78671
dawn 78656
profile 78640
legislature 78638
prepare 78594
welsh 78578
youngest 78564
voting 78520
tale 78513
raw 78510
enti@@ 78507
territories 78505
christopher 78490
photo 78441
sponsored 78437
ranks 78419
generated 78393
funeral 78390
debt 78389
terrible 78376
defend 78371
scholar 78353
interrupted 78352
peaked 78326
soundtrack 78323
mills 78321
summit 78317
merchant 78260
genre 78248
gear 78229
wondering 78202
annually 78165
behalf 78149
lifetime 78128
machines 78118
63 78073
slaves 78052
pit 78044
cabin 78029
answers 78020
ong@@ 78006
whenever 77986
suspended 77983
ours 77967
muslims 77937
1906 77909
detective 77836
59 77830
nelson 77812
participation 77811
shake 77801
guardian 77795
phil@@ 77784
cargo 77746
68 77737
concerning 77675
singh 77650
lau@@ 77644
substantial 77628
noble 77617
confusion 77605
grip 77593
vienna 77593
borders 77592
shire 77577
connect 77550
representation 77549
deaths 77547
partly 77547
gy@@ 77546
1907 77526
writes 77476
harbor 77467
researchers 77459
adams 77430
admit 77423
cleveland 77380
dra 77358
pil@@ 77353
literally 77341
patterns 77338
alien 77312
ninth 77310
dick 77307
sacred 77254
demanded 77253
triple 77237
helps 77236
survival 77227
producers 77195
franklin 77191
remainder 77184
architectural 77183
progressive 77177
staying 77164
atory 77159
tus 77149
secured 77122
tun@@ 77085
jonathan 77075
aqu@@ 77066
lined 77062
perfectly 77059
supporters 77046
pping 77042
lon@@ 77032
helen 77003
work@@ 76987
fairly 76986
77 76981
comfort 76980
saints 76973
mystery 76956
shadows 76950
gur@@ 76894
engineers 76866
partially 76831
disney 76790
dallas 76781
walks 76772
healthy 76754
files 76748
corridor 76739
constitutional 76735
paint 76728
options 76687
grin 76676
14th 76674
preferred 76649
shots 76642
biological 76633
gin@@ 76620
jet 76600
robin 76568
hearts 76557
tool 76534
cried 76527
indicate 76506
forehead 76501
10th 76500
instrument 76490
harm 76483
bigger 76473
fun@@ 76423
pop@@ 76414
venture 76414
ue 76356
forcing 76353
hull 76348
malaysia 76348
layer 76336
longest 76335
warriors 76333
1920s 76276
stroke 76274
cli@@ 76253
sz@@ 76253
norman 76230
ette 76228
penalty 76228
78 76203
controversy 76153
baltimore 76147
1909 76123
dirty 76107
jury 76103
71 76101
mistake 76092
def@@ 76088
mere 76067
remote 76060
mari@@ 76045
commerce 76005
elsewhere 76002
sufficient 76001
mood 75995
attending 75983
friendship 75960
76 75957
mess 75954
displayed 75941
poems 75939
ú@@ 75935
dian 75915
thompson 75915
tribes 75896
emma 75885
30@@ 75863
sheet 75833
habitat 75828
indonesia 75827
participants 75785
organised 75784
ory 75780
tables 75767
bull 75765
revenue 75752
videos 75705
furthermore 75699
controversial 75671
organ 75671
populations 75628
tter 75589
respond 75558
.@@ 75535
alleged 75526
listened 75523
fan@@ 75519
ros@@ 75513
chu@@ 75502
agencies 75490
danny 75485
thereafter 75474
sm 75456
scholarship 75426
portugal 75383
periods 75377
channels 75374
hoo@@ 75358
treat 75354
marshall 75323
reaches 75320
jacket 75281
ruling 75280
widespread 75271
plan@@ 75269
switch 75246
indians 75221
regime 75219
pin 75204
absolutely 75195
virgin 75195
cau@@ 75193
competitive 75182
patrol 75132
bat 75122
dramatic 75120
96 75089
believes 75078
dealing 75052
throwing 75025
allies 74983
oli@@ 74967
ov@@ 74945
managing 74942
lun@@ 74924
ami 74919
nurse 74868
que@@ 74857
jon 74856
intersection 74854
pine 74845
valuable 74823
sad@@ 74790
operational 74786
output 74755
campbell 74745
proud 74731
reveal 74712
touchdown 74711
killer 74647
diamond 74643
10,000 74526
mall 74450
bles 74422
fran@@ 74416
arriving 74412
om 74402
crimes 74397
gospel 74395
ania 74362
lowered 74331
continental 74303
eliminated 74267
expert 74264
bloody 74255
reporter 74255
nba 74251
brook 74246
animated 74245
marcus 74235
gel 74218
attempting 74213
brings 74210
earning 74204
das 74183
stewart 74164
links 74143
transmission 74111
random 74095
donald 74087
murray 74057
wayne 74048
licensed 74033
syn@@ 74028
classification 74021
stops 73999
vampire 73985
ila 73984
tem@@ 73984
1904 73976
lic@@ 73973
portrayed 73965
ici@@ 73947
cooperation 73920
affair 73870
ao 73843
everywhere 73841
shaw 73828
tol@@ 73809
lakes 73798
wat@@ 73753
oliver 73722
defending 73720
collective 73699
ı@@ 73685
badly 73684
constantly 73674
abroad 73672
trials 73666
rid 73661
slight 73659
elite 73644
humanity 73639
74 73617
gabriel 73597
lar 73587
dock 73566
interpretation 73565
hart 73559
steady 73543
vin 73533
assets 73529
tors 73510
properly 73501
civilian 73479
colored 73463
fitted 73425
ceased 73420
transit 73406
component 73405
regard 73404
attitude 73389
characteristics 73385
hyper@@ 73373
contribution 73362
songwriter 73317
ati 73304
sole 73282
bit@@ 73281
kra@@ 73275
nomination 73255
delivery 73239
1902 73233
baron 73211
92 73172
barry 73170
logic 73157
nearest 73127
nbc 73126
aboard 73125
arch@@ 73101
baker 73098
stanley 73065
suitable 73047
mines 73040
shower 73009
maine 72989
discover 72985
athletics 72982
5,000 72979
ease 72972
dom 72966
sum@@ 72965
rob 72953
vo 72876
passion 72870
harder 72856
pursue 72853
dismissed 72811
mono@@ 72802
victorian 72788
glory 72785
pleased 72772
aka 72758
siege 72753
everybody 72742
sheriff 72738
800 72697
84 72634
ack 72605
69 72597
charlotte 72572
democracy 72568
cotton 72555
gon@@ 72532
attributed 72478
affect 72477
lec@@ 72437
themes 72420
mir@@ 72401
pittsburgh 72399
birmingham 72384
technologies 72383
98 72347
spotted 72328
sav@@ 72321
cbs 72316
las@@ 72272
wells 72247
arrangement 72239
wealthy 72215
horn 72207
donated 72184
rachel 72162
drivers 72160
affiliated 72146
germans 72135
happiness 72132
graham 72131
root 72098
crying 72096
judges 72091
ukrainian 72077
epi@@ 72066
cattle 72050
inches 72023
traditionally 71992
clu@@ 71976
kun@@ 71950
73 71938
maker 71893
gir@@ 71891
off@@ 71891
requested 71889
bobby 71880
adaptation 71852
ill@@ 71846
1901 71802
isolated 71791
vincent 71783
87 71750
traveling 71749
81 71740
poverty 71722
winds 71715
softly 71714
bay@@ 71704
1903 71696
aki 71690
stretched 71680
susan 71662
mechanism 71645
concerts 71629
balls 71573
supports 71567
instantly 71564
deeper 71554
9.@@ 71547
pit@@ 71539
historically 71500
erected 71493
19@@ 71435
plat@@ 71428
waved 71414
wire 71356
medals 71347
gathering 71343
shops 71335
personally 71306
our@@ 71295
cha 71263
aff@@ 71247
brooklyn 71226
tested 71224
egyptian 71207
med@@ 71196
kri@@ 71192
pants 71191
dos 71167
innocent 71139
impressed 71138
82 71134
peoples 71119
continuous 71117
illness 71106
mont 71095
connecting 71081
doctors 71062
lia 71055
slu@@ 71055
sli@@ 71018
bb@@ 70998
organic 70994
tra 70971
emily 70916
achievement 70899
tension 70887
eu 70843
beings 70841
duo 70809
comp@@ 70807
explanation 70786
citizen 70781
ler@@ 70738
suspected 70711
robinson 70682
couch 70679
len 70666
prophet 70630
18@@ 70623
grove 70600
beam 70555
ith 70530
sson 70523
produces 70516
decides 70493
colleges 70477
publisher 70475
recalled 70472
venue 70458
bath 70451
fighters 70446
rocky 70442
stic 70433
compilation 70428
demon 70418
naturally 70408
iz@@ 70391
inter 70375
eva 70373
foster 70364
ras@@ 70360
ya@@ 70350
bare 70342
regardless 70338
girlfriend 70323
demonstrated 70283
regulations 70277
ip@@ 70274
rat@@ 70269
kom@@ 70267
hallway 70256
excited 70247
switched 70233
ree 70157
recovery 70145
jail 70144
beth 70139
glance 70139
ib@@ 70118
opponent 70086
flo@@ 70080
illa 70075
touring 70050
pierre 70038
mah@@ 70001
drums 69992
min 69988
eagle 69967
11th 69963
parker 69881
snapped 69864
reveals 69858
law@@ 69838
bel 69825
screamed 69774
tu 69772
disaster 69761
folded 69747
int 69735
fon@@ 69714
villa 69714
panic 69708
automatic 69705
taiwan 69701
cour@@ 69685
morris 69662
manor 69655
slo@@ 69619
97 69567
stro@@ 69565
relation 69540
texts 69535
virus 69530
instrumental 69519
connections 69516
monday 69516
lions 69482
repair 69471
rico 69451
diameter 69365
worker 69333
lan 69254
breast 69246
volunteer 69212
plenty 69206
neuro@@ 69184
sean 69177
met@@ 69153
mus 69148
muhammad 69092
overseas 69077
psychology 69062
assisted 69050
warrior 69040
honest 69035
dependent 69022
finland 68991
sensitive 68986
phil 68982
bearing 68975
insisted 68959
cheeks 68949
ams 68931
ç@@ 68895
grandmother 68890
publicly 68890
spots 68885
plates 68879
nicholas 68789
murdered 68767
sle@@ 68703
gi 68696
83 68684
orleans 68677
spaces 68673
meter 68628
grab 68624
hurricane 68612
alpha 68606
scientist 68579
but@@ 68578
reportedly 68565
reminded 68555
flood 68553
ticket 68553
bet@@ 68528
carlos 68525
rou@@ 68512
characterized 68510
difficulty 68502
benjamin 68471
hated 68465
tag@@ 68456
tommy 68441
kit@@ 68437
* 68433
tering 68422
destination 68410
tape 68407
auto@@ 68404
shan 68402
warren 68384
punishment 68373
servant 68372
ø@@ 68342
clouds 68337
linear 68314
tal 68292
platforms 68257
provinces 68253
telephone 68240
nova 68236
sculpture 68232
simultaneously 68222
dal 68211
wildlife 68204
waist 68202
nit@@ 68200
aaron 68184
idae 68176
yours 68118
settle 68077
contested 68048
elevation 68028
copper 67979
tte 67976
monthly 67966
reflected 67952
93 67944
phrase 67926
ich@@ 67878
earn 67867
biology 67864
mediterranean 67855
demolished 67854
ll 67848
recognised 67825
pregnant 67823
tourism 67807
ero@@ 67794
carrier 67778
3.@@ 67755
breaks 67737
ries 67733
aci@@ 67696
rat 67689
tube 67671
shocked 67647
resort 67637
reply 67598
jerry 67590
respective 67578
yelled 67559
portrait 67551
opponents 67547
josé 67506
releases 67501
segment 67486
rows 67485
categories 67482
acres 67479
minority 67434
sailed 67420
absolute 67384
fi 67383
computers 67369
explains 67348
restricted 67345
increases 67339
79 67332
identical 67323
retail 67292
stare 67281
involves 67264
portland 67257
shes 67249
mes@@ 67168
quarters 67144
ox@@ 67140
89 67139
establishing 67137
volumes 67126
fortune 67117
significance 67098
hem@@ 67080
sky@@ 67038
ultimate 67034
josh 67018
tia 66991
volunteers 66986
cream 66972
timber 66952
twisted 66928
catherine 66923
kas@@ 66913
prices 66908
tly 66905
withdrew 66905
yp@@ 66898
yesterday 66897
freyja 66870
alfred 66867
iting 66865
travelled 66858
viewers 66853
gar 66832
afghanistan 66828
yang 66822
traditions 66799
thailand 66783
dominant 66777
photography 66716
liberty 66708
toured 66704
south@@ 66690
climb 66675
94 66644
sergeant 66637
ministers 66619
decorated 66538
deployed 66537
1898 66514
grinned 66507
mitchell 66500
nes 66500
talks 66499
ases 66487
demands 66470
muscle 66465
instant 66428
payment 66425
richmond 66424
pap@@ 66420
submarine 66409
departed 66387
holes 66357
syria 66346
objective 66343
wan 66333
91 66321
lords 66308
preparation 66298
symphony 66282
praise 66276
pete 66266
jaw 66264
stem 66263
tenure 66259
ess@@ 66257
photographs 66249
ongoing 66209
reporting 66187
laughter 66161
kol@@ 66149
je 66140
phoenix 66132
ferry 66127
thirteen 66126
prisoner 66117
challenges 66113
enforcement 66108
mason 66099
honey 66077
larry 66075
congregation 66073
firing 66071
com 66067
minds 66056
sentenced 66049
magazines 66043
wider 66033
fra@@ 66020
hr 65971
corruption 65939
mini 65918
bis@@ 65897
boots 65870
spirits 65869
utah 65869
immigrants 65861
lucy 65860
arch 65856
sixteen 65854
arabic 65835
electro@@ 65825
arkansas 65810
hl 65774
archbishop 65749
nathan 65748
wit@@ 65736
grows 65730
settlers 65726
kinds 65720
initiated 65707
doorway 65682
ie@@ 65677
sher 65673
fer 65668
directions 65644
instructions 65633
hitting 65632
fee 65631
cliff 65627
diverse 65617
oning 65575
ek@@ 65563
locally 65541
credits 65522
low@@ 65506
devoted 65495
readers 65494
karl 65458
belonging 65452
belongs 65424
operator 65417
ement 65399
bac@@ 65345
glasgow 65343
exposure 65320
sian 65320
7.@@ 65302
error 65302
bra 65301
sit@@ 65301
eyed 65279
loaded 65276
intellectual 65269
tac@@ 65211
trump 65199
sphere 65190
gla@@ 65170
controls 65143
shelter 65118
lisa 65109
inspiration 65086
rebellion 65073
ea 65072
premiere 65048
revenge 65032
messages 65030
ll@@ 65028
snake 65028
referring 64964
2,000 64958
vancouver 64953
til@@ 64949
ng 64913
tanks 64913
skill 64900
comments 64879
bags 64853
belong 64850
1890 64774
experiment 64753
dual 64737
rings 64736
fictional 64686
punk 64667
cuts 64666
judgment 64666
hr@@ 64655
rebuilt 64623
mercy 64622
loop 64619
any@@ 64609
enterprise 64596
rod 64596
drunk 64594
completing 64586
percentage 64572
battles 64552
garage 64544
reduction 64541
boundaries 64530
rent 64524
ids 64512
essentially 64508
deliver 64498
favour 64488
statistics 64486
reception 64484
sample 64477
comment 64466
aspect 64458
vary 64455
situations 64441
companion 64432
chil@@ 64426
planted 64406
neil 64385
stretch 64379
mud 64372
s.@@ 64364
measured 64342
assume 64338
trinity 64300
ets 64275
king@@ 64254
muscles 64252
ae@@ 64248
compound 64215
innings 64174
conventional 64172
closest 64133
leaning 64111
reader 64094
tically 64091
gentle 64085
housed 64067
relevant 64062
romania 64057
radical 64054
isa 64013
scattered 63986
evolved 63980
loves 63959
approaching 63953
pot 63952
autumn 63921
laura 63916
medi@@ 63898
bike 63855
bits 63852
shipping 63821
ratio 63816
relocated 63802
implemented 63780
barbara 63776
bangladesh 63768
drum 63752
dining 63737
舠@@ 63735
cooper 63728
bee 63700
dar 63697
wang 63645
endemic 63642
delhi 63619
aa 63610
furniture 63607
belgian 63605
ranging 63604
filming 63567
spider 63564
fires 63560
railways 63557
ances 63524
deemed 63524
gmina 63507
origins 63485
forum 63466
saving 63465
generations 63462
ently 63458
iling 63417
dynamic 63414
ners 63411
raf 63409
1899 63403
warner 63386
solutions 63378
tales 63363
neu@@ 63359
drummer 63358
collapsed 63357
radi@@ 63345
imp@@ 63338
celebration 63336
turner 63327
sandy 63321
targets 63312
athletes 63280
ideal 63278
topic 63278
bridges 63261
fab@@ 63240
yar@@ 63231
stopping 63221
stolen 63218
puts 63213
posts 63208
exclusively 63206
buffalo 63205
rol@@ 63172
liga 63161
lighting 63157
guided 63138
thou 63136
loving 63129
isation 63117
substitute 63090
lodge 63070
virtual 63052
eldest 63029
lover 63023
millions 63021
greg 63020
manhattan 63009
expand 63000
beliefs 62963
reli@@ 62959
encounter 62953
flowing 62938
exclusive 62934
harbour 62932
believing 62924
lowest 62918
christianity 62914
a.@@ 62913
cole 62913
mum 62913
tat@@ 62894
terminus 62873
amendment 62867
bha@@ 62846
rage 62837
nowhere 62817
sheep 62804
diseases 62790
rie 62777
boxes 62772
terry 62765
terror 62763
trick 62759
bristol 62751
persian 62745
visits 62741
nas@@ 62720
equally 62683
voters 62682
yl 62659
onal 62629
dispute 62603
creator 62601
heroes 62599
nhl 62582
gated 62574
genes 62566
taxes 62554
sung 62553
rer 62547
describing 62545
beaten 62502
warned 62490
wick 62488
nat@@ 62479
oxygen 62474
dru@@ 62472
regulation 62433
focuses 62389
harrison 62379
hopes 62377
sley 62365
1000 62364
tightly 62348
consumer 62347
drafted 62330
glasses 62326
density 62286
caribbean 62285
grand@@ 62276
likes 62217
kit 62215
ō@@ 62212
leo 62198
keeps 62174
fundamental 62170
ware 62165
å@@ 62163
shy 62156
cou@@ 62134
tar 62127
speakers 62125
hampshire 62118
proteins 62105
comparison 62104
relieved 62104
voivodeship 62103
arti@@ 62100
dropping 62037
emotion 62036
io 62023
ling@@ 62015
ñ@@ 62008
lus 62000
traded 61979
symptoms 61970
collapse 61966
julia 61947
collect 61887
conversion 61879
bab@@ 61871
zar@@ 61859
intent 61857
scream 61827
inaugural 61824
yorkshire 61823
oma 61813
rope 61805
welfare 61785
fist 61781
skull 61748
roman@@ 61734
fourteen 61732
tti 61730
gent 61722
submitted 61692
client 61689
maps 61680
sty 61672
indicating 61666
21st 61645
woke 61644
fifa 61641
mic@@ 61637
1895 61634
surrender 61630
package 61627
somebody 61625
promoting 61613
1896 61609
sits 61608
counter@@ 61601
fix 61588
negotiations 61582
witch 61557
coins 61555
mont@@ 61546
addressed 61538
mansion 61534
temperatures 61525
washed 61516
clinton 61507
ut 61489
í 61487
eddie 61453
lightning 61433
kr@@ 61426
pat 61421
8.@@ 61419
zen@@ 61416
ska 61403
bite 61402
attacking 61398
improvement 61394
knock 61393
radar 61392
ć 61385
realised 61381
weird 61359
mask 61331
preparing 61328
framework 61320
enters 61319
examination 61314
clients 61313
phones 61299
evans 61276
god@@ 61275
3d 61251
failing 61244
lessons 61242
functional 61211
grades 61210
topics 61195
certified 61186
satisfied 61176
08 61160
resumed 61137
rangers 61134
oriented 61133
samples 61115
swept 61100
screaming 61066
desperate 61062
finnish 61059
difficulties 61031
sig@@ 61029
knights 61027
consequences 61019
ass@@ 61012
madison 61011
costa 60993
bly 60981
blame 60973
buses 60970
tough 60970
hungry 60955
businessman 60943
procedure 60942
ric 60936
dic 60922
breeding 60905
stre@@ 60843
physically 60842
romanian 60836
sara 60824
retreat 60819
acc@@ 60816
alia 60806
festivals 60795
suburb 60780
flames 60777
artificial 60773
gue 60772
argue 60764
ş@@ 60761
flights 60757
cloth 60756
internationally 60743
engage 60736
struggling 60736
abraham 60732
sweat 60726
chester 60714
giants 60698
comprehensive 60674
mes 60667
rel@@ 60667
interviews 60628
fies 60616
chairs 60615
rs 60605
beijing 60581
hindu 60570
unity 60554
bills 60523
references 60498
assessment 60485
implementation 60485
tribute 60485
pped 60473
unsuccessful 60463
spar@@ 60448
op 60436
protests 60420
reflect 60420
ax@@ 60416
hawaii 60414
coaching 60412
impressive 60409
hu 60408
fair@@ 60387
experiments 60385
subsidiary 60381
binding 60379
mainstream 60372
05 60366
focusing 60334
ida 60331
extend 60323
jun@@ 60314
outdoor 60313
farming 60298
servants 60292
sporting 60275
hebrew 60273
emphasis 60271
photos 60260
tourist 60244
expecting 60221
towers 60221
globe 60195
explosion 60194
stru@@ 60182
kyle 60167
vertical 60151
1897 60146
imagined 60146
underneath 60122
fail 60075
mars 60073
madrid 60071
trapped 60068
lea@@ 60065
shah 60065
boyfriend 60062
approaches 60058
porch 60052
keith 60037
steven 60024
swing 59995
geo@@ 59988
archaeological 59986
mia 59976
pleasant 59963
healing 59956
pearl 59955
sacrifice 59951
09 59944
worthy 59899
defended 59885
onic 59855
tyler 59843
tissue 59836
immigration 59830
bu 59822
wards 59814
250 59809
cats 59749
wheels 59739
amounts 59703
signals 59694
iled 59669
originated 59668
pile 59659
customer 59589
thro@@ 59589
ales 59576
farmer 59568
locality 59550
sag@@ 59529
excitement 59520
armor 59494
shorter 59485
pupils 59477
ele 59473
fen@@ 59470
jurisdiction 59467
pioneer 59467
narrative 59463
sake 59457
permitted 59455
spun 59442
seal 59438
6.@@ 59433
iranian 59396
mixture 59364
presents 59336
sburg 59317
eff@@ 59285
inherited 59278
contents 59263
indoor 59260
partial 59256
banned 59241
lou@@ 59230
antly 59212
derby 59212
pla@@ 59212
advisory 59198
stranger 59195
pho@@ 59182
frozen 59165
ited 59162
manufactured 59153
diet 59142
reviewed 59140
interaction 59125
scope 59113
guidance 59111
una 59107
speci@@ 59074
ste 59072
carries 59063
collins 59062
blake 59060
choir 59053
ibn 59039
theories 59038
pray 59036
raced 59012
lessly 59010
mam@@ 59009
testament 58982
wol@@ 58971
accessible 58957
serbian 58956
eth@@ 58941
gel@@ 58930
camps 58914
maj@@ 58905
ci 58904
1889 58899
historians 58887
01 58867
influences 58860
goddess 58838
1893 58837
midnight 58836
instruction 58791
pper 58772
priests 58762
acquisition 58753
opens 58753
nec@@ 58724
guinea 58713
seeds 58704
sus 58690
basement 58688
chancellor 58677
goo@@ 58676
distinction 58668
divorce 58658
ruler 58651
convince 58650
seated 58641
sty@@ 58641
cent@@ 58599
brush 58590
verses 58590
lam 58589
ero 58572
lanka 58569
nigeria 58566
uefa 58561
tours 58540
sac@@ 58535
tenth 58530
rep@@ 58528
07 58510
souls 58489
yo 58487
milan 58458
elli 58457
rang 58454
suffer 58453
custom 58406
chile 58370
qualify 58367
50@@ 58359
consistent 58353
ined 58348
swe@@ 58347
keeper 58321
drip 58316
claire 58303
cardinal 58295
trio 58262
gather 58257
slept 58253
pounds 58252
fortress 58247
play@@ 58247
occasional 58236
sigh 58209
log 58208
challenged 58194
pes 58192
beck 58186
colleagues 58162
1940s 58141
restaurants 58138
tumor 58118
tear 58106
carved 58104
specialized 58066
hello 58062
merger 58061
1892 58053
baptist 58044
sar 58042
radiation 58027
missile 58022
picking 58002
smo@@ 58002
realm 57992
indicates 57990
rhythm 57984
columns 57972
settlements 57955
sham@@ 57930
crops 57918
yam@@ 57917
observation 57906
graduation 57898
plac@@ 57875
bases 57860
dil@@ 57851
hudson 57846
ful@@ 57821
stored 57796
cin@@ 57794
serbia 57787
playoffs 57766
gab@@ 57765
spec@@ 57731
employee 57727
oring 57719
attractive 57714
grandson 57700
pipe 57690
dj 57674
craig 57673
psychological 57662
wash 57645
dragged 57643
romance 57635
1885 57629
pau@@ 57607
writings 57606
diplomatic 57572
pairs 57571
followers 57552
martial 57536
ture 57533
slip 57531
ori 57528
trace 57522
delta 57520
1894 57482
feeding 57460
characteristic 57447
departments 57438
ick@@ 57423
mutual 57409
repeatedly 57382
contributing 57346
activist 57335
engagement 57317
blessed 57316
cancelled 57300
3,@@ 57288
dollar 57278
ome 57263
dish 57246
behaviour 57242
po 57239
dow@@ 57237
enormous 57233
dev@@ 57222
eless 57217
margin 57215
activated 57206
preserve 57205
ph 57163
worlds 57155
investigate 57151
molecular 57148
à 57120
cuba 57100
genesis 57066
rit@@ 57061
pi 57035
heights 57021
facts 57020
accurate 57009
travels 56990
resource 56988
bic@@ 56984
execution 56930
trap 56930
mel 56902
anc@@ 56897
illustrated 56893
hit@@ 56862
frowned 56846
mysterious 56846
carriage 56842
commitment 56840
monitor 56823
animation 56821
excuse 56817
youtube 56804
perceived 56771
stern 56763
liberation 56762
filling 56760
printing 56755
pres@@ 56754
concepts 56753
rocket 56747
encourage 56737
eternal 56733
sher@@ 56700
adelaide 56684
politicians 56678
riders 56667
onia 56666
outbreak 56662
nephew 56656
reducing 56647
moses 56636
editions 56613
crosses 56611
temporarily 56537
tide 56500
lloyd 56477
microsoft 56472
nan 56437
egg 56423
exhibited 56418
firmly 56410
reverse 56401
kai 56394
prey 56393
gold@@ 56372
ballet 56362
sing@@ 56350
floating 56344
participating 56340
alternate 56328
blocked 56317
sten@@ 56309
physician 56289
ening 56287
romanized 56280
1888 56272
swung 56265
manufacturer 56264
è@@ 56264
campaigns 56254
obama 56244
torn 56243
ion 56237
racial 56226
efficient 56218
ech@@ 56217
calendar 56195
fur 56178
courage 56176
cage 56167
ards 56150
statements 56150
jeans 56148
1865 56144
gothic 56133
stakes 56130
convicted 56118
gram 56117
questioned 56115
actively 56107
lucas 56104
cultures 56084
alaska 56083
oned 56062
municipalities 56059
holder 56035
1891 56022
curious 56007
rode 55982
overcome 55975
beetle 55971
reg@@ 55966
packed 55963
scores 55961
tiger 55954
bau@@ 55937
lifting 55930
1861 55910
dare 55910
bli@@ 55899
roberts 55880
dome 55877
parade 55864
cran@@ 55861
nom@@ 55857
dh@@ 55842
sultan 55834
suspect 55817
dd 55809
tap@@ 55797
extensively 55793
poured 55778
statistical 55778
tasks 55775
buddhist 55766
honors 55751
explore 55747
ented 55732
proceeded 55730
vegas 55729
cooking 55717
alize 55698
cameron 55698
sink 55693
resignation 55689
concentrated 55681
alists 55677
120 55654
book@@ 55638
ack@@ 55610
jenny 55593
supplied 55591
rushing 55576
oni 55569
societies 55564
wr@@ 55547
democrats 55546
alright 55543
boxing 55534
net@@ 55523
lean 55513
guilt 55506
stown 55499
widow 55495
tigers 55454
phd 55449
than@@ 55442
ul 55438
rubbed 55437
celebrate 55417
1864 55390
automatically 55384
adventures 55369
consumption 55355
rad@@ 55353
oph@@ 55347
chess 55344
circular 55343
coaches 55343
vis 55342
patent 55286
ž@@ 55272
pp 55247
hammer 55241
1880 55236
wiped 55235
elevated 55233
thereby 55231
camp@@ 55230
trunk 55207
documented 55203
jeremy 55192
mouse 55189
kan 55173
ano@@ 55170
experts 55137
releasing 55131
hear@@ 55124
anglo 55122
cen@@ 55121
ix 55119
conscious 55108
emerging 55107
awake 55101
seth 55080
pick@@ 55072
oral 55068
transformed 55064
eligible 55050
1870 55041
tent 55031
graphics 55026
helicopter 55013
700 54993
delayed 54984
judicial 54973
les@@ 54971
span 54966
magnetic 54964
northwestern 54962
let@@ 54960
intensity 54954
belly 54951
tered 54945
circles 54943
magical 54941
boarding 54907
des@@ 54899
quest 54886
fs 54885
1.5 54876
maintaining 54868
interstate 54854
unincorporated 54834
examined 54816
corresponding 54796
hugh 54787
fence 54766
quit 54750
axis 54743
qualification 54737
veteran 54725
graph 54723
encountered 54714
indi@@ 54713
owen 54713
descendants 54708
gaining 54708
commanding 54704
sville 54678
athens 54672
tical 54670
boy@@ 54652
spare 54617
og@@ 54615
clearing 54592
abu 54573
40@@ 54564
incumbent 54552
floors 54545
mainland 54536
necessarily 54533
climbing 54532
removal 54520
chicken 54518
arrangements 54517
ened 54483
moreover 54482
assembled 54474
bernard 54465
soap 54454
namely 54440
revised 54427
advocate 54421
gauge 54399
liber@@ 54396
elevator 54369
customs 54337
fold 54337
makers 54328
travelling 54327
afford 54317
gie 54308
oms 54301
arc 54275
nau@@ 54275
scar@@ 54272
aries 54267
drag 54266
pilots 54250
dialogue 54241
creates 54227
hop@@ 54203
barn 54199
ored 54197
une 54182
distinctive 54181
brisbane 54146
isaac 54122
bonus 54116
swi@@ 54108
edges 54096
vul@@ 54070
hitler 54067
pom@@ 54064
scent 54042
justin 54027
attendance 54023
ists 54011
impression 53991
depicted 53972
1862 53970
bour@@ 53948
pastor 53941
favourite 53939
arrives 53906
saudi 53888
1887 53872
locomotives 53870
marble 53866
complicated 53850
butler 53843
rally 53837
gg@@ 53834
speaks 53832
efficiency 53830
hans 53826
kg 53824
dness 53808
input 53803
annie 53798
rey 53794
commons 53792
diesel 53774
agu@@ 53767
structural 53757
blast 53752
consequently 53741
3,000 53735
relatives 53735
50,000 53734
receives 53724
recall 53704
dennis 53693
raid 53690
jamie 53671
fluid 53658
plo@@ 53655
theology 53653
logan 53639
dent 53609
sally 53608
tossed 53590
alberta 53571
harold 53568
declaration 53534
fool 53522
jin 53515
1863 53505
joke 53498
lesser 53498
whi@@ 53494
ade@@ 53474
slavery 53467
brilliant 53458
extending 53432
iro 53398
prevented 53396
witnesses 53384
tram@@ 53377
aceae 53360
duc@@ 53343
bullet 53333
ces 53325
cent 53323
sup@@ 53315
chy 53302
hospitals 53298
usage 53290
owns 53282
generate 53261
jesse 53256
ech 53247
precious 53211
relaxed 53190
glow 53185
cy 53178
scout 53176
06 53146
attraction 53140
serial 53134
rebels 53125
shallow 53116
deer 53112
enrolled 53105
striking 53085
click 53080
jen@@ 53064
introduce 53055
delay 53049
dé@@ 53033
handling 53016
dot 52992
journalism 52981
arrow 52968
kie 52960
backing 52952
ink 52936
lic 52930
presentation 52918
silently 52889
euro@@ 52887
stuart 52883
revealing 52872
sign@@ 52868
todd 52861
altered 52845
array 52834
rider 52827
fewer 52825
zer@@ 52819
zo 52818
gravity 52805
ez 52795
accomplished 52791
signature 52780
reservoir 52779
hardware 52772
reasonable 52772
separation 52740
wrist 52736
drinks 52731
mas 52729
ball@@ 52728
mt 52727
feared 52689
née 52689
kilometers 52687
intermediate 52686
100,000 52681
esp@@ 52668
bore 52653
succession 52621
loading 52612
tz@@ 52602
clerk 52587
brad 52575
rounded 52557
airlines 52548
commenced 52542
contracts 52528
kov 52527
gifts 52500
vent@@ 52496
disc@@ 52487
shan@@ 52487
designation 52472
resting 52469
exhibit 52463
sep@@ 52460
improvements 52427
seized 52404
seemingly 52400
dissolved 52398
colonies 52392
con 52380
curve 52379
philippine 52374
erie 52360
faded 52360
pradesh 52340
free@@ 52329
eagles 52324
discipline 52309
raj@@ 52307
eighteen 52299
pitched 52285
variable 52280
snow@@ 52266
fellowship 52251
ssi@@ 52232
maritime 52230
1886 52226
apo@@ 52212
grateful 52212
rogers 52189
earthquake 52159
barrier 52152
spite 52152
threats 52128
banking 52123
joan 52110
munich 52078
jor@@ 52066
survivors 52047
vulnerable 52045
confederate 52042
vital 52040
grammar 52032
ast@@ 52030
quantum 52024
eling 51994
slammed 51988
murphy 51985
kha@@ 51970
database 51966
chaos 51935
spi@@ 51930
cum@@ 51897
chat@@ 51890
casting 51856
leagues 51840
desired 51833
zen 51832
enable 51806
refugees 51805
fbi 51803
pag@@ 51769
kre@@ 51756
04 51743
inde@@ 51717
silk 51706
imagination 51699
spy 51698
veterans 51683
threatening 51677
fu 51648
twins 51646
thunder@@ 51645
ralph 51632
enjoying 51629
ethan 51603
defender 51591
nancy 51579
renowned 51576
tively 51570
rell 51547
innovation 51545
1884 51539
lovely 51529
jefferson 51523
tion@@ 51520
hard@@ 51505
denver 51504
abad 51494
1881 51479
sailing 51476
peru 51470
bling 51468
logo 51448
c.@@ 51445
professionals 51444
quar@@ 51441
ports 51429
senses 51429
reed 51428
territorial 51427
kim@@ 51412
doctrine 51408
lum 51404
farms 51403
collaborated 51401
rev 51378
vel 51353
ranch 51331
entity 51322
tures 51317
legacy 51312
warfare 51304
amanda 51291
sham 51291
roo@@ 51287
ros 51256
2.5 51252
vor@@ 51247
peaceful 51232
owing 51225
hook 51217
diversity 51213
invented 51208
footage 51206
manuscript 51186
architects 51173
dt 51173
heir 51166
exile 51164
locks 51162
tum@@ 51152
southeastern 51151
plains 51149
quarterback 51148
ffs 51144
eaten 51138
burns 51128
wu 51119
cont@@ 51110
google 51110
closure 51093
bie 51076
email 51071
contribute 51067
possessed 51067
pistol 51062
sierra 51060
rested 51055
mathematical 51047
construct 51038
recipient 51026
autonomous 51016
nevada 51014
ignore 50995
tian 50990
specialist 50971
prefecture 50969
barcelona 50962
ide@@ 50954
cincinnati 50946
sustained 50938
dakota 50930
dimensional 50915
ized 50908
manual 50908
fake 50900
peer 50884
thrust 50876
leeds 50870
ring@@ 50869
shade 50864
prof@@ 50863
variant 50862
chocolate 50860
brit@@ 50857
ns@@ 50857
jessica 50855
protestant 50850
connects 50826
gener@@ 50791
pent@@ 50787
sank 50778
outcome 50776
halt 50762
ensemble 50751
suggesting 50750
routine 50742
lied 50733
organisations 50726
facebook 50722
touching 50693
acknowledged 50683
fusion 50666
julian 50659
stanford 50656
virtually 50651
sequel 50646
photo@@ 50645
administered 50613
coo@@ 50612
wishes 50597
nod 50595
uncomfortable 50589
aging 50580
ranges 50562
zhou 50561
zy 50553
nickname 50544
ellen 50541
imprisoned 50524
parked 50508
soci@@ 50504
armenian 50502
reflection 50482
oscar 50478
crashed 50472
perry 50466
colombia 50465
revelation 50439
tomb 50438
norfolk 50436
aids 50432
chuckled 50408
loo@@ 50407
horizon 50397
grain 50385
download 50377
mc 50370
undergraduate 50346
wounds 50339
spr@@ 50331
sur 50326
fabric 50316
democrat 50314
vocalist 50293
athlete 50286
gregory 50281
intelligent 50279
yne 50275
zam@@ 50269
breathe 50257
foods 50249
ris 50233
altitude 50218
ency 50208
lt 50199
disorder 50192
sometime 50174
ag 50153
thesis 50148
announcement 50142
crack 50130
preservation 50124
sheets 50112
canyon 50110
lov@@ 50107
reserves 50100
hid 50089
pressing 50084
thai 50084
1882 50075
invitation 50075
slide 50063
programmes 50062
orbit 50051
ritual 50051
sni@@ 50040
pond 50028
volleyball 50025
militia 50014
predecessor 50012
chapters 50005
nia 49996
doubles 49994
ua 49994
cock 49985
feld 49978
alised 49975
heim 49960
missionary 49942
spe@@ 49937
demons 49934
permanently 49930
believers 49912
governing 49909
hug 49909
buying 49884
forgive 49884
contrary 49883
installation 49873
armies 49872
nest 49872
spor@@ 49867
loyal 49830
recover 49815
liam 49788
journalists 49769
severely 49756
accommodate 49753
ment@@ 49752
recruited 49752
moderate 49741
herbert 49738
potentially 49711
dig@@ 49705
ée 49698
logist 49692
cameras 49691
coup 49662
searched 49648
sively 49648
lily 49645
integration 49643
embassy 49638
clar@@ 49629
cake 49626
transformation 49624
poll 49616
certificate 49614
substance 49612
oper@@ 49607
florence 49594
casualties 49582
intervention 49570
onian 49561
workshop 49561
newcastle 49551
drops 49513
jumping 49506
yu 49505
depends 49479
ander 49458
barrel 49449
linda 49447
layers 49446
vy 49441
mosque 49434
luis 49431
chambers 49424
wagon 49422
reserved 49410
advisor 49404
mit 49392
exhausted 49388
ingham 49380
neighboring 49367
ater 49325
graphy 49325
iso@@ 49310
ison 49307
secrets 49306
locomotive 49277
lance 49274
burial 49256
ques 49252
sixty 49247
identification 49238
particles 49217
gus 49215
sne@@ 49213
ruth 49211
witnessed 49202
practiced 49199
swallowed 49190
eman 49186
gas@@ 49185
centered 49155
disp@@ 49152
unconscious 49151
alarm 49139
succeed 49126
flame 49121
item 49121
compiled 49113
yale 49109
holland 49097
auto 49096
aires 49089
colours 49089
grid 49089
tune 49061
inducted 49060
hn 49054
coin 49034
infection 49030
extinct 49007
joshua 49007
emp@@ 49003
findings 48986
imposed 48979
targeted 48975
1860 48972
02 48969
aims 48968
eh 48966
tournaments 48966
relegated 48963
ă@@ 48950
civic 48949
gues 48944
variation 48942
whoever 48938
playoff 48934
gang@@ 48927
citing 48921
harsh 48912
freight 48909
harmony 48898
shaft 48898
blanket 48884
receiver 48853
cottage 48851
archives 48850
noting 48849
trips 48849
temples 48840
warmth 48834
absorbed 48829
ruins 48818
mps 48807
relating 48786
runners 48777
neo 48765
tted 48755
nepal 48754
20,000 48749
jennifer 48747
reforms 48742
confident 48730
ów 48720
venice 48718
fic@@ 48713
ops 48707
descended 48699
pet 48695
eau 48683
cleaning 48669
amsterdam 48667
dering 48654
founders 48645
bengal 48644
invisible 48638
assignment 48632
bing 48632
portions 48631
midfielder 48619
wed 48611
menu 48601
lang@@ 48595
renewed 48587
,@@ 48586
sustainable 48575
oun@@ 48556
wall@@ 48539
pt 48533
mic 48530
presidency 48513
variations 48511
03 48506
appreciate 48496
aggressive 48488
corners 48471
wives 48469
logically 48463
zy@@ 48459
bombing 48455
rape 48454
manuel 48451
syrian 48445
thor@@ 48443
rebel 48437
garrison 48434
stability 48428
protecting 48424
cult 48408
treasure 48398
school@@ 48396
ère 48396
dense 48377
hasn 48377
rays 48374
renaissance 48368
choices 48340
rabbi 48338
nov@@ 48333
remarkable 48329
strikes 48328
shame 48327
smoking 48325
householder 48313
fol@@ 48307
streams 48294
suspension 48290
ising 48282
000 48247
deals 48243
spectrum 48240
otto 48236
jon@@ 48233
restore 48232
enabled 48211
harvey 48203
1871 48190
wallace 48167
galaxy 48162
displays 48158
spencer 48156
coached 48154
jac@@ 48142
kills 48123
honored 48112
brah@@ 48088
hai 48061
escort 48060
rin@@ 48056
1883 48055
nursing 48053
salvation 48049
hou@@ 48038
karen 48019
consist 48018
sanctuary 48014
static 48005
inspector 47993
seminary 47979
mature 47967
altar 47947
consideration 47947
î@@ 47945
avi@@ 47926
blonde 47919
chorus 47912
edwards 47903
lp 47892
painful 47889
grants 47888
handsome 47880
discrimination 47865
cylinder 47864
expanding 47848
reward 47848
kenya 47842
ev 47837
procedures 47830
pedro 47827
developments 47811
ego 47784
md 47773
upstairs 47770
1876 47751
2000s 47751
ves@@ 47748
landmark 47747
lah 47736
ame 47724
fit@@ 47724
arian 47722
honours 47706
psycho@@ 47699
north@@ 47698
bed@@ 47689
bishops 47666
hips 47639
handled 47635
vir@@ 47628
nebraska 47627
advised 47597
solve 47588
gli@@ 47578
associations 47567
tul@@ 47562
bitter 47561
pursuit 47555
lifestyle 47554
petersburg 47538
sman 47529
nationalist 47521
affiliate 47510
rid@@ 47507
ius 47505
interface 47474
ille 47469
broad@@ 47451
roosevelt 47451
consequence 47449
migration 47438
refuge 47435
pay@@ 47434
1878 47428
plaza 47399
monitoring 47380
define 47366
scra@@ 47353
boulevard 47333
pulse 47330
disbanded 47329
airline 47314
manufacturers 47277
dealt 47275
assi@@ 47261
tourists 47259
porter 47254
steal 47254
congressional 47252
exhibitions 47233
leon 47233
checking 47230
drake 47227
singers 47210
blew 47203
pers 47200
depot 47191
tina 47191
boot 47182
stor@@ 47181
bend 47178
tang 47174
disappointed 47170
ivan 47166
removing 47166
tting 47153
xed 47152
beds 47142
tobacco 47134
authored 47120
anime 47114
chal@@ 47109
stationed 47096
matrix 47078
dragons 47071
symbols 47068
embrace 47066
anchor 47065
mist 47055
safely 47055
exterior 47047
jose 47046
mani@@ 47040
upcoming 47039
haw@@ 47029
stal@@ 47027
dell 47014
pirates 47000
torture 46992
notion 46982
boom 46979
aches 46978
neutral 46976
sco@@ 46960
step@@ 46959
suff@@ 46958
rebecca 46942
warsaw 46941
improving 46931
phy@@ 46931
essence 46925
retain 46898
bunch 46869
tribal 46854
lebanon 46835
chem@@ 46830
tens 46805
bled 46793
'an 46765
num@@ 46765
ancy 46753
yi 46747
stained 46733
eh@@ 46725
aga 46684
nik 46678
priority 46676
wolves 46674
avoided 46669
marc 46659
bia 46658
sem@@ 46652
how@@ 46649
io@@ 46636
pitcher 46628
aya 46624
estates 46620
kap@@ 46619
.c 46610
insects 46607
shanghai 46596
hau@@ 46594
extends 46544
argues 46539
ante 46529
colin 46517
ley@@ 46508
corn 46487
gers 46451
thee 46451
breeze 46447
berkeley 46437
practically 46434
enzyme 46427
1867 46414
aj@@ 46412
backwards 46404
predominantly 46401
iri@@ 46392
bang 46384
faint 46379
argentine 46378
ately 46374
asi@@ 46371
ottawa 46367
scru@@ 46355
portal 46354
day@@ 46345
nonetheless 46320
unions 46315
rap@@ 46311
unexpected 46307
editorial 46299
ratings 46297
mé@@ 46288
watson 46287
involve 46271
retiring 46263
phenomenon 46262
dame 46243
cheese 46234
sch 46222
civilians 46216
alley 46211
dancer 46208
beta 46198
ast 46184
arguing 46180
montana 46171
wellington 46170
provisions 46165
investors 46155
dried 46147
excellence 46145
comprises 46143
iner 46142
siblings 46135
centres 46129
iraqi 46126
thin@@ 46123
leigh 46115
sp 46110
raymond 46106
stake 46101
requiring 46091
thermal 46090
electronics 46089
photographer 46079
realizing 46078
tender 46057
1872 46051
topped 46026
ordained 46021
counted 46016
gal 46016
gle@@ 46016
home@@ 46012
hill@@ 46009
strict 46006
wind@@ 46002
merit 45995
arnold 45980
ele@@ 45975
proven 45972
ph.d 45970
collecting 45962
4,@@ 45949
server 45946
hus@@ 45940
ining 45939
independently 45935
shak@@ 45928
metre 45916
manages 45913
1875 45912
reconstruction 45912
aj 45909
pronounced 45903
hughes 45895
bother 45889
northeastern 45883
dug 45874
fears 45869
chip 45860
lightly 45848
resolved 45825
chuck 45824
nate 45797
assists 45794
acoustic 45789
laying 45789
interpreted 45781
5.@@ 45778
ud 45757
squeezed 45753
elderly 45743
jay@@ 45742
anybody 45726
croatian 45711
halfway 45706
stepping 45695
shin@@ 45680
dubbed 45678
flies 45661
lesson 45651
extraordinary 45646
port@@ 45632
nashville 45630
counsel 45629
harmon@@ 45623
southwestern 45620
recreation 45610
unlikely 45601
goodbye 45600
gilbert 45595
chelsea 45590
croatia 45585
1868 45578
sue 45575
repeat 45573
determination 45559
prefer 45556
sins 45554
chiefs 45551
conquest 45545
prestigious 45542
marines 45531
ś@@ 45523
assured 45516
solomon 45508
criteria 45477
commentary 45468
copyright 45466
marking 45461
p.m 45457
terrain 45443
bolt 45437
catching 45429
foot@@ 45429
voiced 45421
shin 45405
patch 45404
1879 45382
theatrical 45382
twentieth 45376
lish 45360
iness 45350
curriculum 45342
arabia 45341
fastest 45340
brun@@ 45329
permit 45322
delaware 45304
steep 45298
row@@ 45294
evident 45279
abolished 45276
trigger 45267
leton 45256
pursued 45253
byzantine 45240
queens 45239
requirement 45223
spin@@ 45215
caroline 45208
cigarette 45196
ous@@ 45192
ship@@ 45191
terrorist 45186
mcc@@ 45176
settling 45166
restrictions 45146
protocol 45137
quoted 45135
rubber 45135
breed 45134
varied 45108
sci@@ 45097
azerbaijan 45076
ular 45069
numbered 45059
pub 45050
dental 45046
gg 45028
handful 45024
solely 45024
maggie 45022
conducting 44995
syndrome 44995
infinite 44991
newton 44989
bulgarian 44988
equation 44971
laser 44962
manga 44960
ó 44959
bulgaria 44941
thu@@ 44934
1866 44927
reactions 44914
ré@@ 44910
shakespeare 44910
mg 44902
updated 44902
suite 44880
daddy 44865
explaining 44851
chances 44846
rein@@ 44820
eta 44806
demo@@ 44765
planes 44764
louise 44760
exploration 44759
tou@@ 44758
instructed 44757
circum@@ 44742
anxiety 44738
eri 44732
kirk 44728
doctorate 44719
lil@@ 44709
eager 44700
kab@@ 44689
thunder 44651
victories 44635
panels 44629
relax 44613
acceptance 44606
gging 44597
rookie 44593
curse 44581
conflicts 44576
provision 44567
fathers 44559
1873 44550
kh 44547
promises 44546
spreading 44540
cork 44536
sheffield 44530
00@@ 44521
ading 44512
bold 44510
wag@@ 44508
carol 44470
1874 44469
consultant 44450
ou 44441
sophie 44426
broadcasts 44415
julie 44415
cruz 44403
martha 44400
epic 44393
bitch 44386
horrible 44377
overhead 44363
sony 44353
romans 44350
blood@@ 44344
paths 44335
strings 44334
appeals 44332
streak 44331
pus 44324
artwork 44323
ello 44322
privately 44319
fr 44315
vic 44305
loudly 44301
humor 44295
matched 44295
ū@@ 44295
sail 44282
gat@@ 44273
nell 44261
são 44257
cared 44254
ray@@ 44249
drives 44236
frustration 44221
faithful 44214
nineteenth 44212
bonds 44209
chains 44205
navigation 44205
phillips 44202
observations 44187
tho@@ 44181
maz@@ 44169
jacques 44152
discovers 44143
mini@@ 44143
audiences 44124
respected 44123
keen 44120
1877 44115
rely 44115
tation 44104
ico 44097
allegedly 44096
gut 44090
gross 44074
whisper 44071
registration 44068
e.@@ 44063
currency 43996
qualities 43991
dynamics 43985
eventual 43976
kara 43967
wen@@ 43967
conductor 43950
venezuela 43946
collegiate 43933
melody 43931
sensation 43924
mercury 43916
ras 43905
perception 43900
chim@@ 43895
arguments 43893
everyday 43891
ingen 43885
trucks 43877
rivals 43867
celtic 43858
marvel 43856
ür@@ 43855
wn 43845
cannon 43839
hypo@@ 43838
profession 43837
segments 43833
citizenship 43829
palestine 43826
nationwide 43813
paradise 43807
fights 43800
uri 43793
libraries 43791
acquire 43782
chan 43767
mach@@ 43766
mans 43752
voyage 43751
asa 43748
platinum 43740
flooding 43733
tc 43703
ente 43692
legendary 43689
immune 43681
atomic 43680
ame@@ 43667
guild 43667
gged 43660
kins 43654
ammunition 43644
detected 43639
synthesis 43636
bron@@ 43631
more@@ 43631
auckland 43629
cheap 43625
rin 43623
hurried 43613
eli 43595
shel@@ 43592
hurry 43586
1848 43582
leonard 43577
lighter 43573
clinic 43564
wis@@ 43561
roster 43556
consent 43555
beard 43545
mon 43545
attract 43541
marched 43537
af 43530
was@@ 43525
hawk 43523
doc 43518
cross@@ 43502
liner 43496
transported 43496
ig 43491
sebastian 43483
methodist 43478
mtv 43471
sunlight 43470
authorized 43467
cit@@ 43445
crop 43421
preliminary 43402
lectures 43384
maurice 43372
blank 43370
biography 43353
interchange 43336
lungs 43336
cast@@ 43335
borg 43324
shim@@ 43320
underwent 43304
freely 43259
resist 43254
fisher 43249
bes 43239
ín 43236
lasting 43227
ket@@ 43220
possess 43215
alert 43214
side@@ 43209
suburbs 43196
brushed 43194
ides 43178
ium 43170
poli@@ 43166
flashed 43162
inge 43159
dial 43156
smiles 43154
reformed 43153
thumb 43153
mentally 43143
associates 43141
nerve 43139
sounding 43131
evan 43126
vietnamese 43118
hamlet 43112
rises 43079
tch 43077
master@@ 43071
forgot 43055
fare 43054
prototype 43048
reads 43047
æ@@ 43046
enlisted 43027
journals 43026
slope 43018
tional 43008
controlling 43005
heart@@ 42986
dul@@ 42976
lecture 42970
ups 42956
protective 42941
kissing 42939
luxury 42935
enhanced 42934
white@@ 42929
hybrid 42927
venues 42925
duration 42903
specimens 42899
derek 42888
ms@@ 42870
dylan 42860
aded 42859
communicate 42852
vii 42838
chin@@ 42836
slowed 42834
burden 42833
divorced 42799
legion 42791
strategies 42791
punch 42782
touchdowns 42776
varying 42768
fairy 42766
mass@@ 42763
1869 42757
compensation 42745
tended 42742
palestinian 42739
mighty 42734
pec@@ 42732
prompted 42721
dis 42714
populated 42707
operators 42688
bah@@ 42674
decrease 42670
favorable 42663
dee 42657
wool@@ 42650
equality 42649
muttered 42647
lecturer 42630
maintains 42626
trusted 42624
desperately 42615
poorly 42608
satan 42604
swift 42594
bride 42591
dimension 42583
trailer 42580
arose 42579
jack@@ 42575
isle 42569
vale 42560
versus 42542
occurring 42524
pha@@ 42520
rna 42513
hotels 42499
conferences 42497
conceived 42486
anim@@ 42476
inland 42475
dozens 42471
celebrity 42463
tee 42457
wi 42454
counts 42448
bennett 42443
1850 42400
convoy 42398
dine 42395
stop@@ 42381
theological 42377
discontinued 42367
estimate 42334
codes 42333
app 42332
nad@@ 42326
scales 42311
hub 42305
spine 42300
grammy 42299
inhabited 42296
loyalty 42279
destroying 42277
mates 42271
biblical 42261
brave 42255
booth 42250
frontier 42250
tow@@ 42250
spinning 42232
drawings 42227
aw 42226
uss 42226
privacy 42215
ssa 42210
heels 42203
tations 42198
lonely 42197
hen 42191
lung 42176
oblast 42175
bulk 42173
hunger 42140
cer 42129
crucial 42128
likewise 42126
genuine 42107
exp@@ 42095
circulation 42094
4,000 42090
evaluation 42088
peri@@ 42088
graves 42081
interactions 42050
neighbouring 42048
ever@@ 42024
betty 42023
cluster 42016
stock@@ 42014
yor@@ 41999
diary 41998
awa 41997
cal 41997
lay@@ 41997
allo@@ 41992
wednesday 41986
holdings 41984
tau@@ 41982
yugoslavia 41981
nun@@ 41973
committees 41965
gad@@ 41962
destiny 41961
toll 41959
lone 41958
uma 41958
liu 41929
chap@@ 41916
montgomery 41916
eland 41914
joins 41890
export 41885
pad 41879
cop 41873
prospect 41864
continent 41854
ignoring 41840
tai 41840
accidentally 41815
town@@ 41815
fruits 41804
classroom 41774
wilderness 41765
tile 41762
blog 41744
brass 41741
consumed 41714
predicted 41714
pound 41712
terrorism 41707
duncan 41701
elaborate 41699
ians 41690
hometown 41688
lyn 41681
gasped 41677
habit 41677
tickets 41669
mothers 41668
pac@@ 41659
suburban 41654
brands 41653
kerala 41648
eps 41632
basically 41627
considerably 41625
feder@@ 41621
ow 41621
breasts 41616
robot 41611
urs 41609
openly 41602
theoretical 41594
smen 41593
essi@@ 41591
marathon 41589
dle 41577
dag@@ 41575
fl 41564
rum@@ 41548
jam 41527
activists 41521
ão 41508
petro@@ 41505
indonesian 41499
ulate 41492
tactical 41481
lene 41480
amber 41470
舗s 41469
offense 41465
tactics 41462
demonstrate 41449
playstation 41447
sliding 41446
feast 41445
induced 41436
trend 41436
toy 41428
lé@@ 41417
achi@@ 41414
basket 41412
commit 41394
dium 41389
chel@@ 41387
scandal 41382
valid 41382
massacre 41375
ethics 41370
vermont 41365
consensus 41359
agrees 41354
console 41352
lawyers 41345
prague 41342
thursday 41338
tric@@ 41335
enne 41326
f.c 41319
uncertain 41312
teen 41302
sealed 41301
instructor 41292
fork 41290
discussions 41288
aps 41279
hs 41278
assuming 41269
dimensions 41253
publishers 41252
riley 41250
hannah 41249
directing 41248
warehouse 41229
promising 41228
monk 41221
lawsuit 41196
fog 41180
silly 41176
aboriginal 41167
cz@@ 41162
pulls 41162
tum 41161
tham 41160
hollow 41144
swim 41132
cand@@ 41129
deny 41120
episcopal 41113
adi@@ 41106
uri@@ 41106
ale@@ 41105
incredible 41103
interactive 41092
show@@ 41085
compact 41081
abruptly 41079
hair@@ 41067
chen@@ 41057
amer@@ 41037
vegetation 41034
governmental 41015
call@@ 41006
secretly 41006
inscription 41002
bacteria 40988
zoo 40987
ato 40983
domin@@ 40979
patron 40977
mechanisms 40975
inv@@ 40960
jungle 40958
flat@@ 40957
excess 40952
conspiracy 40944
fever 40932
lobby 40924
allegations 40920
ei 40894
math 40894
petition 40877
responsibilities 40877
voc@@ 40876
pause 40872
refuse 40864
illo 40854
columbus 40841
glen 40834
hiv 40833
swear 40831
rex 40827
devon 40826
nab@@ 40823
heavyweight 40822
seventeen 40806
bailey 40798
ral 40788
monsters 40787
cruise 40785
abo@@ 40781
capabilities 40781
nasa 40779
publish 40753
indies 40742
condemned 40726
kel 40723
aching 40719
jur@@ 40701
demanding 40697
administrator 40696
fossil 40693
sullivan 40692
ugly 40683
challenging 40673
intact 40667
urge 40667
manila 40657
malcolm 40651
diving 40643
rolls 40639
regret 40620
wizard 40615
marsh 40613
explored 40609
ort 40585
healthcare 40583
canton 40582
messenger 40580
fees 40568
natur@@ 40566
hydrogen 40562
gesture 40558
headquartered 40546
listing 40545
esses 40544
greeted 40542
lawn 40536
opinions 40535
tex@@ 40526
innovative 40523
tributary 40520
clarke 40508
geographic 40507
cherry 40497
concentrate 40478
awkward 40474
kid@@ 40457
adoption 40450
dana 40446
see@@ 40446
dor 40434
teenage 40429
conjunction 40396
wild@@ 40395
shoved 40388
mentions 40384
avoiding 40357
collar 40356
ences 40329
cane 40312
fraud 40311
prote@@ 40310
bers 40295
moo@@ 40284
mario 40281
configuration 40267
compositions 40256
developers 40246
zones 40232
proclaimed 40227
panama 40222
adi 40218
miguel 40212
urged 40210
footsteps 40197
proceedings 40192
varies 40188
civilization 40173
heal 40153
heated 40151
burnt 40132
és 40121
underlying 40120
choosing 40106
surveillance 40101
twitter 40100
deadly 40098
alistic 40097
tracking 40093
absent 40080
hir@@ 40080
chau@@ 40078
disappear 40067
bleeding 40061
fountain 40051
night@@ 40051
decree 40048
testimony 40030
staged 40027
11@@ 40009
surgeon 39991
napoleon 39988
orientation 39988
yi@@ 39981
michelle 39975
angela 39974
oria 39970
beats 39952
.s 39938
lu 39938
accepting 39931
molecules 39925
yuan 39915
banner 39914
width 39914
burton 39904
beloved 39903
logists 39903
mers 39896
zh@@ 39894
investigations 39884
firms 39881
rescued 39878
hamburg 39871
fulness 39868
comprising 39863
rap 39833
1857 39827
dishes 39825
bal 39808
lis 39793
fried 39787
nur@@ 39783
mumbai 39782
suggestion 39780
hawks 39777
opposing 39768
grasp 39763
say@@ 39759
sr@@ 39754
arsenal 39749
essex 39746
prayers 39746
hugged 39698
mau@@ 39696
scu@@ 39696
vić 39694
tos 39664
incidents 39644
limestone 39644
workshops 39642
subtle 39641
observe 39631
stumbled 39630
1859 39628
philosophical 39625
cab 39615
10.@@ 39606
rup@@ 39601
nationally 39585
ore@@ 39578
learns 39568
precise 39553
aerial 39551
buck 39541
eness 39534
tore 39519
ancestors 39514
cart 39500
acy 39492
plantation 39489
environments 39485
bowling 39462
ju 39455
det@@ 39454
prints 39451
murders 39447
oval 39445
anglican 39443
mineral 39437
dat@@ 39431
lon 39426
draws 39414
proceed 39412
bhar@@ 39410
bble 39405
tuesday 39405
infected 39403
m.@@ 39399
lease 39392
chers 39389
tica 39385
tes@@ 39367
trans 39349
ellis 39348
vector 39346
locals 39337
atop 39334
motorcycle 39318
gym 39316
minimal 39315
flora 39311
slam 39311
diana 39302
legally 39297
bark 39295
buck@@ 39290
rendered 39284
sooner 39283
exciting 39282
marshal 39280
interim 39279
referendum 39276
tv@@ 39272
surroundings 39267
river@@ 39265
a.m 39260
ough 39254
probability 39253
resolve 39250
cuban 39248
suspicious 39243
hall@@ 39235
cho 39234
cardinals 39233
decent 39232
sten 39225
inquiry 39221
sal 39216
disabled 39210
jamaica 39208
proximity 39207
tai@@ 39200
refuses 39197
discussing 39194
matching 39194
zers 39186
utility 39183
oid 39179
flee 39174
scor@@ 39166
altogether 39159
custody 39154
skilled 39154
desires 39134
vampires 39133
bowed 39125
ripped 39124
relay 39117
ghana 39113
ava 39088
payments 39083
casino 39081
grief 39073
mou@@ 39073
perth 39072
cure 39065
grande 39054
georgian 39052
monks 39049
trails 39049
performers 39039
curved 39037
discre@@ 39033
kilometres 39025
suits 39020
repairs 38997
ome@@ 38983
crowded 38976
compounds 38973
borne 38971
shining 38967
ounding 38960
genic 38958
react 38942
bic 38941
achievements 38931
expectations 38928
dialect 38910
shrine 38909
propaganda 38902
traced 38900
raj 38894
strictly 38883
och@@ 38880
foundations 38878
sworth 38872
coloured 38870
wheat 38870
developer 38864
deposits 38858
rhe@@ 38853
aver@@ 38851
× 38848
withdrawn 38846
shelf 38839
estimates 38830
liver 38826
stack 38826
knocking 38825
butterfly 38821
atten@@ 38815
comple@@ 38803
shuttle 38803
granite 38802
amar@@ 38796
bon 38788
afl 38785
vicinity 38783
ises 38770
him@@ 38762
lens 38757
ía 38748
anism 38745
noah 38738
cks 38736
consistently 38734
accounting 38728
miracle 38715
neighbors 38709
optical 38705
cio 38696
duck 38691
tism 38690
poles 38678
shorts 38676
oakland 38675
brooks 38669
andrea 38666
lanes 38662
beau@@ 38661
storyline 38660
kle@@ 38653
ought 38646
brow 38639
calculated 38639
adds 38628
exploded 38626
shapes 38620
endless 38618
rainfall 38608
uh 38608
hd 38604
accent 38603
syl@@ 38602
wow 38600
steering 38593
alling 38579
tense 38570
var 38566
bombs 38561
rifles 38556
interviewed 38549
chat 38543
penny 38542
hostile 38525
eyebrows 38517
milwaukee 38511
organisms 38511
helmet 38503
admission 38502
holmes 38492
jin@@ 38485
magnitude 38485
outs 38485
governed 38476
decreased 38473
hopefully 38466
shor@@ 38460
hang@@ 38456
stur@@ 38434
solving 38429
congo 38426
tre 38426
vu@@ 38420
guil@@ 38417
carpet 38412
plateau 38409
franco 38385
dim 38381
hul@@ 38378
abortion 38370
goalkeeper 38367
j.@@ 38365
amazon 38362
aga@@ 38348
vladimir 38336
hosting 38332
powder 38331
exc@@ 38303
nintendo 38293
mechanics 38292
hint 38283
berger 38282
conviction 38268
acre 38262
upright 38245
tops 38243
punjab 38235
politically 38233
dig 38229
tus@@ 38221
portraits 38216
observer 38206
fron@@ 38202
reliable 38202
marco 38199
variants 38199
halls 38195
curiosity 38193
mama 38189
viii 38189
fitting 38187
closet 38186
suited 38182
ious 38175
cracked 38173
maya 38170
stand@@ 38170
stockholm 38159
gall@@ 38152
rotation 38152
investigated 38130
ician 38125
graduates 38106
set@@ 38104
bout 38093
taxi 38081
rier 38078
onwards 38077
asp@@ 38070
itation 38063
screenplay 38053
mistakes 38047
essay 38030
accordance 38027
cups 38013
canon 38008
harper 38006
ulation 38001
deliberately 37997
gon 37987
naming 37985
complained 37978
ladder 37976
darker 37967
stance 37966
salary 37963
intentions 37962
competitors 37949
adjusted 37944
heath 37943
welcomed 37940
eled 37907
layout 37894
bull@@ 37886
purse 37883
westminster 37881
aire 37879
sends 37877
alumni 37874
sno@@ 37873
1854 37864
doug 37859
costume 37858
stam@@ 37844
ruby 37837
yel@@ 37834
blinked 37830
bradley 37830
organize 37819
contacts 37817
sorts 37813
iv@@ 37811
manufacture 37811
toes 37810
companions 37795
penn 37792
surfaces 37773
philosopher 37770
scri@@ 37769
kho@@ 37762
herald 37758
frustrated 37752
ober@@ 37750
apartments 37748
surprisingly 37747
echo 37745
museums 37745
deciding 37744
shifting 37743
durham 37736
cartoon 37728
photograph 37727
teachings 37722
wai@@ 37705
maid 37701
ax 37697
gaming 37695
pier 37690
1855 37671
abstract 37671
positioned 37668
integral 37663
vacant 37661
unaware 37656
holly 37644
rim 37639
religions 37634
lap@@ 37630
jab@@ 37628
convert 37627
gö@@ 37614
horizontal 37607
glowing 37592
reconnaissance 37589
pregnancy 37582
candy 37580
commands 37579
courtyard 37579
blan@@ 37574
pets 37571
grabbing 37570
kumar 37568
runway 37568
tackles 37568
esh 37567
proposals 37567
dull 37560
stripped 37556
cut@@ 37546
kne@@ 37540
mice 37538
merchants 37537
achieving 37532
lamp 37531
mentor 37529
cock@@ 37523
palmer 37520
bryan 37517
legends 37512
faction 37503
ign@@ 37502
lows 37496
nel@@ 37480
implement 37478
managers 37476
varieties 37476
violet 37469
literacy 37466
somerset 37460
hep@@ 37459
cr 37448
mins 37446
qur 37446
continuously 37442
geographical 37436
sie 37435
gia 37434
mut@@ 37430
barracks 37427
satisfaction 37426
aba 37424
motors 37422
revolt 37422
sequences 37420
limbs 37411
slopes 37404
adrian 37391
bb 37384
examine 37376
downstairs 37375
editing 37361
supporter 37349
ef 37348
'clock 37337
computing 37332
prevention 37331
teenager 37331
devi@@ 37330
stevens 37323
blessing 37303
separately 37299
ê@@ 37299
wherever 37298
mph 37297
gw@@ 37295
pianist 37290
disciples 37278
nominations 37257
triangle 37250
kno@@ 37248
bassist 37246
olive 37246
soli@@ 37242
ais 37226
airfield 37225
fury 37224
flipped 37219
lings 37213
ial 37209
imprisonment 37208
parti@@ 37207
bourne 37205
planets 37202
measuring 37197
accuracy 37192
expense 37180
superintendent 37178
minim@@ 37177
eda 37176
conver@@ 37172
expelled 37160
lynn 37159
thur@@ 37156
forbidden 37150
jets 37144
ana@@ 37142
lacked 37142
specified 37136
bounded 37129
upgraded 37129
brunswick 37106
high@@ 37106
cd@@ 37095
brow@@ 37087
tapped 37069
archive 37058
consumers 37056
quin@@ 37044
receptor 37042
roy@@ 37035
bosnia 37034
responses 37033
disk 37021
hesitated 37017
andrews 37011
fierce 37009
uprising 37008
viewing 37008
bbing 37001
investments 36992
beat@@ 36988
modest 36986
jared 36983
hay 36982
assassination 36977
buenos 36969
introducing 36958
1858 36953
mild 36950
drifted 36948
sip 36948
rob@@ 36943
glared 36942
storms 36939
primitive 36934
unclear 36927
cope 36918
lacking 36918
observatory 36917
odds 36908
batting 36902
eden 36902
ppers 36902
blown 36898
stead 36896
premises 36889
bren@@ 36879
dum@@ 36879
bankruptcy 36876
elimination 36868
armstrong 36862
ate@@ 36856
diagnosed 36848
lou 36845
nicknamed 36840
awful 36836
lid 36835
1856 36830
newport 36826
crews 36813
equity 36808
treasury 36806
telegraph 36798
tang@@ 36797
oul@@ 36793
rh@@ 36793
ruined 36789
pakistani 36763
indianapolis 36760
balanced 36759
rowing 36757
startled 36750
ashes 36749
albanian 36748
arctic 36734
velocity 36733
farther 36724
house@@ 36723
trevor 36723
torpedo 36722
senators 36714
gentleman 36708
arity 36705
disturbed 36704
holders 36698
ref@@ 36698
tucked 36689
distinguish 36681
hara 36677
remarked 36675
finale 36673
abandon 36670
toxic 36668
kaz@@ 36663
lyn@@ 36655
aber@@ 36648
poison 36648
ish@@ 36635
visitor 36630
inclusion 36624
arians 36623
fem@@ 36617
automobile 36611
withdrawal 36607
mati@@ 36600
vac@@ 36597
dressing 36583
withdraw 36583
delegates 36581
frightened 36580
supposedly 36576
real@@ 36572
ologist 36566
sussex 36558
stunned 36553
strain 36552
traces 36549
east@@ 36546
secular 36543
preventing 36540
shoe 36534
mark@@ 36513
schu@@ 36512
š 36505
risks 36499
larvae 36497
trustees 36490
moder@@ 36486
framed 36485
ug@@ 36473
bec@@ 36469
hatred 36451
errors 36448
reflecting 36447
preston 36442
troy 36434
violin 36432
java 36427
technological 36419
chand@@ 36407
heather 36404
batteries 36402
rus 36400
owed 36396
drank 36389
sizes 36387
clin@@ 36381
savage 36375
chronicle 36372
embarrassed 36372
bbed 36368
hl@@ 36367
poets 36360
maxim@@ 36358
homo@@ 36355
tioned 36354
codice 36347
cam 36345
allu@@ 36340
i.@@ 36334
streaming 36331
cycling 36330
donna 36329
az 36325
pockets 36320
arc@@ 36316
ernest 36304
debris 36303
undertaken 36300
jag@@ 36294
inspection 36289
bby 36285
katie 36284
shells 36278
questioning 36277
tackle 36273
para 36261
profits 36259
realistic 36253
republicans 36239
demonstration 36238
anga 36235
vinyl 36228
pos@@ 36220
remembering 36202
fragments 36192
ino@@ 36190
composers 36183
sas@@ 36182
shane 36182
tips 36176
keyboard 36174
machinery 36174
diver@@ 36166
casey 36153
finest 36150
boring 36147
sings 36147
princeton 36144
happily 36138
disappointment 36135
airing 36133
ami@@ 36126
frames 36113
blades 36097
deserve 36095
simpson 36089
lock@@ 36072
clean@@ 36068
brussels 36059
enterprises 36058
breathed 36046
ier 36040
nal 36039
clam@@ 36038
scripture 36038
pod 36037
sided 36037
countryside 36036
gil 36033
cox 36026
criticised 36025
presumably 36014
turing 36014
overwhelming 36007
buddha 36006
cognitive 36006
dding 36001
pour 35998
good@@ 35992
nas 35973
collector 35970
eugene 35970
sofa 35968
advancing 35966
considers 35963
glen@@ 35958
tram 35958
disputed 35952
differently 35951
curled 35947
fam@@ 35942
yield 35938
lineup 35933
scotia 35916
crowned 35910
algorithm 35901
jackie 35900
wri@@ 35897
strongest 35887
curtis 35886
hypothesis 35886
serie 35880
rulers 35877
vand@@ 35866
juice 35864
walt 35864
complaints 35857
acceptable 35848
6,000 35846
locate 35844
motor@@ 35841
aftermath 35834
lounge 35832
tubes 35828
diane 35820
delegation 35816
tray 35816
brandon 35815
eliminate 35812
ligh@@ 35810
pollution 35810
scouts 35809
feminist 35806
shir@@ 35803
gains 35797
valued 35796
tit@@ 35781
patience 35780
teammate 35771
seeks 35768
organizing 35766
kicking 35760
ik@@ 35756
exercises 35755
issa 35755
fin 35734
power@@ 35723
thers 35720
visions 35720
wei 35717
particle 35707
precisely 35706
geneva 35705
đ@@ 35704
scre@@ 35686
anus 35685
nato 35683
tristan 35683
vegetables 35683
rah 35682
fancy 35679
pose 35676
idol 35673
crushed 35672
wen 35668
void 35654
hunters 35653
1851 35652
flooded 35650
wu@@ 35638
tiv@@ 35637
fat@@ 35635
endangered 35621
unified 35620
silver@@ 35617
wad@@ 35617
activation 35609
ör@@ 35604
elbow 35602
leslie 35598
sd 35594
allan 35592
starter 35591
buddy 35588
hms 35587
ean 35585
pow@@ 35573
dead@@ 35571
revived 35569
supervision 35569
thi 35569
depths 35568
maiden 35567
butt 35550
seating 35549
apollo 35541
angles 35539
ec 35534
sprint 35534
kenneth 35533
crest 35511
astro@@ 35498
chro@@ 35498
vent 35495
div@@ 35491
alike 35489
peered 35488
virtue 35481
smallest 35474
ld 35472
rats 35472
lex@@ 35471
davies 35463
swords 35460
ğ@@ 35451
retire 35442
hugo 35439
honestly 35437
rovers 35425
friedrich 35419
bomber 35418
toilet 35413
capitol 35405
pes@@ 35403
ination 35401
inj@@ 35401
acclaimed 35396
abe 35387
abu@@ 35383
flowering 35382
adopt 35377
anticipated 35365
freed 35358
heating 35345
agreements 35342
wicked 35340
paulo 35338
angel@@ 35336
hire 35332
sticks 35325
copenhagen 35303
sox 35303
lining 35299
membrane 35296
shouting 35296
uc@@ 35296
staircase 35293
surrendered 35281
hampton 35275
harvest 35274
oli 35270
blacks 35263
pie 35259
swa@@ 35244
rea 35242
integrity 35235
acclaim 35230
proportion 35229
dictionary 35227
sunk 35227
accompanying 35225
correctly 35220
sec 35214
homeless 35213
pr 35204
detection 35199
gazed 35199
nightmare 35199
bicycle 35197
scorer 35197
bottles 35196
conversations 35186
wilhelm 35186
rhode 35176
deceased 35167
ng@@ 35165
brooke 35163
cruel 35151
vanished 35150
dp 35147
invaded 35146
kau@@ 35141
5,@@ 35140
afterward 35133
sack 35131
trim 35131
ential 35126
b.@@ 35124
janet 35122
realizes 35113
oro@@ 35107
clara 35102
mistress 35099
fantastic 35097
nicol@@ 35097
powell 35097
freshman 35088
kay@@ 35087
entries 35085
santiago 35078
bros 35070
circus 35069
anton 35067
essays 35066
promotional 35062
bullets 35056
destroyer 35051
yak@@ 35049
masses 35044
bells 35037
projected 35035
reid 35035
caps 35027
skating 35026
echoed 35024
leon@@ 35017
ī@@ 35003
bastard 34999
arn@@ 34993
sl 34975
kane 34967
amp@@ 34965
kl@@ 34961
blocking 34958
you@@ 34953
meditation 34948
sensed 34929
1840 34928
rosa 34921
fatal 34910
euro 34904
ronald 34892
tas@@ 34888
sion@@ 34887
eas@@ 34883
entities 34876
alpine 34869
zhang 34863
pump 34861
empress 34852
with@@ 34850
lei@@ 34844
adri@@ 34839
provider 34839
stole 34836
tap 34833
anxious 34831
stra 34824
bce 34817
intimate 34814
ography 34811
exchanged 34794
neighbor 34788
beg@@ 34787
presenting 34780
settings 34770
invested 34763
prohibited 34751
glacier 34750
momentum 34750
lighthouse 34744
johann 34742
governance 34738
milton 34729
recreational 34726
seventy 34723
ibm 34722
diploma 34719
hurst 34716
d.@@ 34709
widened 34709
ashley 34700
-@@ 34694
infant 34680
lana 34679
osis 34672
counting 34664
missiles 34663
way@@ 34646
interference 34639
aliens 34636
mankind 34636
jar 34634
prot@@ 34633
130 34629
availability 34628
useless 34620
bot@@ 34610
morph@@ 34609
washing 34607
transform 34605
researcher 34602
invention 34600
twist 34598
eth 34597
stadt 34594
regulatory 34590
timing 34581
adel@@ 34565
veins 34561
guru 34558
performs 34558
diagnosis 34554
ook 34553
4.@@ 34548
3.5 34542
rivalry 34540
dac@@ 34535
iser 34522
livestock 34520
110 34507
catholics 34504
conquered 34503
babies 34499
suspicion 34493
canterbury 34492
electron 34489
lancashire 34489
artifacts 34488
proceeds 34483
1852 34482
ppy 34474
scan 34474
bored 34471
loans 34462
requests 34460
ggy 34459
steadily 34452
thered 34443
reflects 34438
midst 34437
101 34432
winston 34416
esti@@ 34414
ensis 34410
brid@@ 34401
wireless 34400
xes 34394
ape 34390
nel 34384
depicting 34382
inian 34382
ferdinand 34379
900 34375
possibilities 34368
joel 34363
zan@@ 34359
battalions 34354
stat@@ 34354
kingston 34349
facilitate 34314
dancers 34312
phi@@ 34311
ridiculous 34298
delicate 34296
presbyterian 34294
contracted 34291
gens 34291
molly 34289
key@@ 34286
dered 34280
sic 34270
nerves 34263
legi@@ 34261
tedly 34259
saxon 34240
uganda 34238
cruiser 34237
chef 34234
reinforced 34230
fitness 34225
exploring 34217
rectangular 34217
tends 34216
exclaimed 34214
grun@@ 34207
leased 34203
franz 34192
clue 34185
tooth 34184
hindi 34182
renovation 34182
flagship 34181
ruin 34175
itan 34173
materi@@ 34173
homeland 34172
advantages 34160
tunnels 34152
update 34149
pass@@ 34145
insane 34140
itated 34140
differ 34139
lateral 34137
av 34128
rotten 34124
facade 34123
pathway 34123
quinn 34122
cardiff 34113
gripped 34113
kul@@ 34111
manuscripts 34104
eco@@ 34099
thal 34096
auction 34082
1853 34076
insight 34070
mat 34068
connor 34066
tory 34060
cir@@ 34056
sunshine 34055
organs 34054
sent@@ 34054
tty 34052
furious 34050
encouraging 34048
relegation 34044
patho@@ 34033
matic 34031
capability 34028
morocco 34022
eries 34021
exhibits 34009
posed 34008
idaho 34006
vers@@ 34003
caring 33998
scanned 33995
iss 33990
aling 33985
monuments 33985
cops 33980
rum 33978
joey 33976
kis@@ 33974
conserv@@ 33972
detect 33970
sap@@ 33970
villagers 33970
sexy 33966
sinking 33964
popped 33944
elders 33942
labels 33933
stering 33929
pig 33928
sol 33905
regiments 33903
lithuania 33897
divide 33896
cyprus 33881
elect 33878
dest 33857
thriller 33856
envelope 33854
ological 33849
icon 33844
gos 33836
lovers 33835
cali@@ 33832
sharply 33832
tampa 33823
millennium 33822
volcanic 33820
rever@@ 33816
expenses 33814
glu@@ 33813
vre 33804
giovanni 33796
enclosed 33784
raven 33775
jealous 33774
slot 33770
bud@@ 33768
mom@@ 33752
troop 33752
voltage 33737
disorders 33721
oz 33720
olivia 33714
tragedy 33709
road@@ 33706
missionaries 33705
snail 33700
alter 33697
0th 33695
robe 33695
applying 33684
downs 33682
performer 33676
cooperative 33675
belle 33673
desp@@ 33664
palms 33661
dog@@ 33656
talented 33654
geological 33652
nuts 33647
tones 33643
fir@@ 33638
mill@@ 33632
bradford 33626
protagonist 33624
judged 33614
regulated 33609
will@@ 33603
toe 33601
cus 33589
confirm 33587
mu 33587
hal 33580
henderson 33563
mandatory 33561
imported 33559
deeds 33558
memphis 33546
thal@@ 33545
wickets 33542
sponsor 33535
jal@@ 33521
lig@@ 33518
terrified 33517
jim@@ 33513
kenny 33513
magne@@ 33501
dit@@ 33492
weakness 33492
refu@@ 33489
arise 33481
malta 33478
amed 33466
rabbit 33464
regained 33460
ens@@ 33453
dominican 33450
monte 33450
objectives 33446
agenda 33428
spelling 33425
bility 33422
flown 33421
ges@@ 33420
backup 33419
wishing 33418
tle 33413
deci@@ 33411
180 33408
recommendations 33405
rainbow 33403
bombers 33391
spelled 33383
tici@@ 33381
vy@@ 33380
claude 33376
plasma 33371
occupy 33369
pac 33361
nick@@ 33358
guidelines 33355
1849 33352
vacation 33343
reluctantly 33342
lengths 33337
shap@@ 33336
caves 33334
frog 33330
stom@@ 33330
deployment 33315
barnes 33313
alli@@ 33308
oh@@ 33307
aring 33304
fis@@ 33298
.a 33287
renovated 33282
struggles 33282
consulting 33280
cursed 33279
mara 33271
anonymous 33266
cp 33260
ml 33256
accordingly 33246
osa 33246
sovereign 33246
inform 33244
casual 33243
rian 33243
nim@@ 33214
darwin 33211
embarked 33211
expressions 33211
ribs 33211
ceremonies 33205
cb@@ 33201
emmy 33200
dus 33198
factories 33197
col 33195
cf 33191
danced 33191
stealing 33187
ballot 33182
habitats 33181
savings 33177
editors 33175
advances 33174
recurring 33174
careers 33170
skirt 33167
dive 33166
ached 33152
one@@ 33151
jill 33146
laps 33146
edgar 33145
neighbourhood 33145
cement 33139
highways 33139
ér@@ 33131
sati@@ 33130
gin 33123
maternal 33120
miners 33118
remind 33110
sleeve 33110
kad@@ 33109
turn@@ 33108
mortal 33104
placement 33101
ym@@ 33093
troubled 33089
indie 33087
cow 33083
aked 33080
gameplay 33077
kurt 33072
boxer 33070
easter 33068
employer 33068
mob 33068
surprising 33064
sex@@ 33057
clenched 33053
equi@@ 33051
richardson 33049
ichi 33047
mos 33047
gastropod 33046
som 33037
armored 33032
engaging 33030
kö@@ 33026
productive 33023
ayan 33021
rose@@ 33021
ama@@ 33020
ova 33020
supernatural 33020
theorem 33018
trac@@ 33018
toys 33007
woo@@ 33002
stretching 32999
pru@@ 32997
ames 32993
sworn 32993
randy 32987
mutations 32981
gibson 32979
guarantee 32976
reynolds 32974
louder 32972
summers 32971
blowing 32968
nis 32966
brighton 32963
frost 32951
blamed 32944
hut 32941
mack@@ 32941
xton 32941
commercially 32938
overnight 32934
myth 32932
1847 32923
initiatives 32923
shirts 32920
dances 32912
itor 32905
narrowed 32897
obtaining 32892
chang 32889
backward 32888
khar@@ 32887
rapper 32882
kru@@ 32874
allocated 32865
newer 32862
ankle 32860
ambulance 32859
parted 32856
ock 32850
remnants 32848
outfit 32846
alities 32842
woodland 32835
rational 32808
anian 32800
fossils 32796
mie 32794
voluntary 32794
€ 32791
cker 32784
tara 32778
windsor 32770
combine 32768
successive 32766
notre 32759
pillow 32756
prayed 32756
fists 32755
functioning 32743
coupled 32742
critically 32725
edmund 32725
enthusiasm 32722
biting 32718
embedded 32712
dau@@ 32694
snu@@ 32694
sculptures 32692
sea@@ 32691
asset 32682
legitimate 32682
hp 32679
haired 32663
sectors 32659
colleague 32656
towel 32656
ssy 32655
vie@@ 32655
filipino 32654
dop@@ 32653
predic@@ 32648
30,000 32647
bre 32638
tracy 32634
meyer 32631
batman 32625
consolidated 32620
françois 32610
charitable 32604
rain@@ 32603
kirk@@ 32598
nam 32595
alis 32590
complexity 32589
aero@@ 32575
curtain 32575
aux 32555
solved 32552
hatch 32549
stle 32547
surrey 32546
aus 32544
accommodation 32542
preceding 32537
rubbing 32534
screening 32532
assumption 32528
mcdonald 32525
hardy 32523
mixing 32520
adequate 32518
here@@ 32517
fernando 32516
violation 32513
speeds 32509
mum@@ 32502
chit@@ 32497
drained 32491
magnificent 32485
qing 32482
sudan 32469
contacted 32453
fest 32452
specimen 32448
teaches 32440
sharon 32428
genres 32425
measurement 32424
plymouth 32424
bam@@ 32408
archi@@ 32403
eous 32402
spells 32402
chill 32398
corporations 32391
rich@@ 32383
gee 32382
ȳ@@ 32379
aided 32376
corpse 32371
allmusic 32366
linking 32355
hyde 32351
kisses 32347
fo 32346
monroe 32344
expertise 32336
tendency 32329
lithuanian 32328
pizza 32323
aer@@ 32322
pursuing 32320
sunset 32314
meals 32306
enhance 32299
investigating 32299
secre@@ 32281
boro 32277
saskatchewan 32272
kat 32270
liz 32269
persuaded 32260
nurses 32257
councils 32254
raiders 32254
generating 32250
edo 32248
gravel 32240
gram@@ 32235
anthology 32232
attributes 32227
container 32223
regards 32223
sunny 32219
itz 32208
moss 32208
henri 32192
ark 32190
auxiliary 32186
talents 32186
folks 32184
path@@ 32168
raids 32166
mal 32163
1846 32162
statues 32162
carlo 32155
ony 32138
elec@@ 32136
café 32133
wreck 32132
transmitter 32126
locking 32123
dark@@ 32119
valve 32116
orlando 32112
delight 32109
milli@@ 32108
sali@@ 32104
jointly 32099
sick@@ 32078
inst@@ 32075
donations 32069
gentlemen 32068
digging 32065
tless 32057
orn 32052
uniforms 32047
storey 32045
idi@@ 32040
tas 32033
genius 32026
freestyle 32025
relate 32025
dealer 32023
albania 32013
covenant 32012
vain 32010
eno@@ 32002
sage 31999
armenia 31987
excessive 31978
crush 31956
luci@@ 31952
fli@@ 31950
pal 31949
ris@@ 31948
hot@@ 31947
inaugurated 31947
scenario 31947
wes@@ 31945
doubled 31939
waving 31937
constituted 31935
proc@@ 31932
buddhism 31930
chor@@ 31924
ums 31915
alizing 31913
depicts 31912
mare 31906
commanders 31876
coordinator 31852
alexandria 31851
iron@@ 31848
reluctant 31846
referee 31842
certification 31839
cleaned 31839
encounters 31838
oslo 31836
pierce 31826
transmitted 31814
mir 31812
feedback 31809
warming 31808
ario 31801
stiff 31799
coll@@ 31796
answering 31787
kos 31766
wre@@ 31755
ured 31754
clergy 31752
purely 31751
glenn 31748
stuffed 31748
marina 31745
vag@@ 31737
doctoral 31726
oath 31722
chemicals 31717
bothered 31708
governors 31707
rebounds 31706
belgrade 31705
groaned 31705
gum 31698
h.@@ 31693
ara@@ 31676
lyon 31671
applies 31667
distracted 31659
soo@@ 31656
sailors 31655
wage 31655
evolutionary 31653
moon@@ 31651
premi@@ 31649
tract 31649
wrap 31640
correspondence 31632
doll 31632
dai 31626
att 31623
submit 31618
ounce 31617
courthouse 31616
russians 31615
cute 31614
quartet 31614
kas 31602
experiencing 31599
pretend 31599
modeling 31598
pis@@ 31586
eleanor 31580
thoroughly 31580
prussian 31566
pling 31563
lev@@ 31562
atics 31559
miranda 31558
prosecution 31555
geography 31554
tec@@ 31548
sadness 31543
smelled 31541
rag@@ 31540
bang@@ 31535
freeway 31534
ail@@ 31531
technically 31527
stry 31525
dover 31520
ı 31511
hopkins 31507
shu 31486
acute 31484
subway 31471
gies 31470
damned 31459
lutheran 31459
nap@@ 31450
ret@@ 31435
slender 31420
driveway 31413
robertson 31412
shine 31406
rica 31400
appreciated 31399
emissions 31399
poo@@ 31384
chronic 31378
360 31371
door@@ 31365
readily 31360
treasurer 31359
nis@@ 31357
criminals 31348
impe@@ 31346
frankfurt 31336
rho@@ 31335
tiles 31332
unveiled 31332
1812 31330
angelo 31330
stark 31318
1800 31316
albany 31316
peaks 31311
mr@@ 31310
helena 31309
bered 31308
ë@@ 31306
kak@@ 31303
agh 31299
variables 31297
amusement 31293
contestants 31274
guessed 31265
yoga 31264
lava 31263
retreated 31260
'brien 31258
soup 31257
chlor@@ 31253
triumph 31248
unsuccessfully 31239
sophia 31234
portfolio 31223
pepper 31216
comprised 31213
cornwall 31211
noon 31210
vine 31208
screens 31201
cone 31200
bler 31195
carriers 31185
reunited 31185
griffin 31184
bak@@ 31179
abby 31176
metric 31173
longtime 31171
pavilion 31166
gerald 31162
strait 31161
mandate 31147
calgary 31146
chad 31138
cohen 31121
illusion 31119
brigadier 31118
curves 31116
jade 31115
gt 31114
entrepreneur 31112
timothy 31111
gic 31110
generous 31109
lander 31108
ethical 31107
gio 31105
nicole 31102
nation@@ 31095
aman 31093
advocated 31091
liv@@ 31089
marion 31088
owe 31086
arrows 31083
canvas 31082
watch@@ 31079
compromise 31078
ę@@ 31068
eye@@ 31064
combining 31062
designers 31057
chic@@ 31055
pled 31055
praying 31055
gm 31052
sonic 31049
shattered 31048
emigrated 31047
thy@@ 31042
gown 31041
par 31038
stered 31034
sheer 31025
emerge 31022
refusing 31022
melissa 31020
remix 31020
1845 31017
carmen 31014
riot 31014
gill 31013
immigrant 31010
katherine 31007
airborne 31004
stin@@ 30994
annoyed 30990
loses 30989
ussr 30988
unt 30977
corn@@ 30971
upward 30971
albeit 30970
compare 30963
warn 30962
8,000 30959
pottery 30953
ace@@ 30946
nadu 30934
asi 30931
achi 30927
1830 30922
rot 30919
arcade 30917
scripts 30912
snap 30911
mack 30910
pounding 30908
iceland 30895
shields 30895
clause 30893
daw@@ 30893
spir@@ 30881
indo 30873
fails 30872
makeup 30872
shark 30870
neighborhoods 30861
bordered 30859
salem 30858
kes@@ 30852
speedway 30852
ahmed 30844
bio 30842
trent 30842
polar 30840
cord 30834
mythology 30833
oo 30825
sentences 30818
aur@@ 30815
complaint 30814
lancaster 30814
julius 30812
screams 30812
instances 30807
erik 30805
churchill 30801
motioned 30800
bahn 30795
feminine 30792
licence 30789
maha@@ 30788
trainer 30788
krishna 30787
enberg 30786
branded 30785
aton 30778
naples 30775
addresses 30767
terrace 30762
rhine 30759
glancing 30752
luther 30750
warrant 30740
nixon 30738
outlets 30730
belfast 30729
halifax 30723
mond 30720
motivated 30719
provisional 30717
org@@ 30713
aro 30712
edi@@ 30710
bell@@ 30701
vey 30696
reservation 30692
nails 30686
scho@@ 30685
discharge 30682
manitoba 30681
terminated 30672
watts 30671
tren@@ 30669
elephant 30666
max@@ 30655
conf@@ 30647
antarctic 30642
morrison 30640
anth@@ 30636
sculptor 30636
25th 30634
fraser 30630
stag@@ 30623
thed 30611
regain 30610
hank 30588
eur 30577
qi@@ 30572
asylum 30567
dorothy 30562
narrowly 30562
baroque 30555
eck 30550
limitations 30549
rail@@ 30548
inheritance 30533
weed 30528
crap 30525
presenter 30522
reagan 30522
comparable 30517
practicing 30517
paved 30514
postal 30512
wandered 30507
cooked 30505
minded 30499
jol@@ 30497
builder 30495
vig@@ 30491
attained 30488
opted 30488
cellular 30480
lab@@ 30476
synthetic 30473
carpenter 30468
strand 30467
stall 30463
cloak 30458
industri@@ 30454
identifying 30453
websites 30453
observ@@ 30452
quantity 30452
rector 30450
highlighted 30440
enrollment 30437
coral 30432
sophisticated 30429
osc@@ 30427
richards 30427
bart 30425
traits 30417
symboli@@ 30413
shepherd 30411
sandstone 30405
crater 30395
eternity 30395
michel 30393
wester@@ 30393
depend 30392
meantime 30376
ecting 30364
spear 30350
emi 30344
dio 30332
.d 30328
springfield 30328
• 30323
holo@@ 30315
sses 30312
helpful 30309
polo 30304
aca 30303
genera 30301
quo@@ 30297
progressed 30290
ury 30289
comedian 30287
dramatically 30279
tori@@ 30277
pension 30272
seas 30266
preceded 30263
cun@@ 30262
tornado 30260
350 30257
gavin 30248
aks 30247
ordin@@ 30231
cyclone 30218
zzi 30212
structured 30209
hey@@ 30207
surgical 30202
sucked 30199
analy@@ 30184
chasing 30182
averaged 30178
ddy 30176
istanbul 30176
precision 30169
cricketer 30167
unsure 30167
dagger 30161
theodore 30136
temp@@ 30133
presidents 30127
swan 30120
bom@@ 30119
huh 30116
sym@@ 30113
decorative 30111
neg@@ 30111
confi@@ 30110
marching 30107
rosen@@ 30090
bé@@ 30085
nobel 30085
finite 30062
intensive 30061
atta 30058
conservatives 30058
regi@@ 30054
spa 30053
fk 30050
portsmouth 30049
oped 30048
monica 30032
badge 30026
holidays 30026
sai 30025
picks 30024
web@@ 30015
explorer 30014
tribune 30014
abdul 30010
ato@@ 30010
weakened 30006
threshold 30003
anticipation 30001
doc@@ 29997
bye 29996
bian 29994
inning 29987
hears 29980
tri 29976
subfamily 29975
battlefield 29974
tam 29973
monkey 29969
trafficking 29969
eb@@ 29960
irs 29953
flank 29948
r.@@ 29947
loch 29945
edwin 29944
olympi@@ 29944
rumors 29941
treating 29940
atoms 29939
physicians 29939
bug 29922
defl@@ 29919
resurrection 29919
elegant 29915
exam 29915
incredibly 29915
chips 29911
humanitarian 29908
oak@@ 29906
serv@@ 29906
nobility 29904
gem@@ 29899
zombie 29899
shoots 29896
lauren 29895
reversed 29891
slapped 29891
conscience 29866
reverend 29861
measurements 29859
exceptional 29854
filter 29849
witz 29849
rochester 29846
mercedes 29845
ind 29839
lex 29839
amaz@@ 29838
flam@@ 29838
lie@@ 29833
vacuum 29829
confederation 29827
reviewer 29822
ima 29820
premiership 29818
geometry 29817
idiot 29817
kop@@ 29816
pier@@ 29814
slovenia 29809
explosive 29792
novelist 29787
ester 29776
kidnapped 29776
throws 29762
had@@ 29749
pillars 29747
blond 29741
generals 29737
summoned 29736
feathers 29731
wea@@ 29731
zzo 29725
pleaded 29721
collaborative 29719
1837 29716
pity 29712
deserved 29711
nervously 29705
sabha 29705
human@@ 29704
darling 29697
rehabilitation 29677
providers 29673
lgbt 29672
armour 29669
schemes 29667
life@@ 29666
willie 29664
brac@@ 29663
confined 29654
systematic 29653
metallic 29651
scar 29631
torch 29624
professionally 29621
duchy 29617
christine 29613
chang@@ 29612
ggled 29609
rati@@ 29608
wages 29601
asteroid 29600
tucker 29593
develops 29587
tsu@@ 29581
nationals 29574
crowds 29573
exceptions 29566
ña 29559
gina 29556
majesty 29555
defines 29552
similarities 29552
isolation 29551
anders 29550
disputes 29549
alle@@ 29548
dwelling 29548
classics 29547
baltic 29546
ski@@ 29545
partisan 29544
mock 29530
forgiveness 29527
burke 29523
autobiography 29517
highlights 29515
sandwich 29507
sof@@ 29507
securities 29506
ire@@ 29504
informal 29501
publicity 29497
roses 29496
kett 29493
marketed 29492
hayes 29491
kay 29481
guides 29477
stems 29468
tto 29460
shout 29459
cooling 29454
buttons 29451
ando 29449
semifinals 29449
confronted 29448
graphs 29445
escal@@ 29440
boeing 29437
continually 29431
facial 29431
aggregate 29429
lengthy 29424
balcony 29418
enabling 29407
trauma 29405
edmonton 29402
ranger 29400
formations 29399
armoured 29396
endorsed 29396
borrowed 29388
conception 29386
raja 29378
caution 29375
tman 29373
roller 29372
nes@@ 29370
nik@@ 29367
afc 29361
froze 29360
charging 29354
crow 29344
accompany 29341
escorted 29341
rita 29341
twelfth 29341
vity 29341
dream@@ 29340
dwarf 29340
blair 29333
americas 29331
luc@@ 29310
catches 29309
sey@@ 29308
gotta 29305
wheel@@ 29301
foul 29295
explicitly 29292
ee@@ 29289
convent 29279
sofia 29275
thom@@ 29274
zel@@ 29266
hart@@ 29254
df 29253
mammals 29248
ław 29248
accredited 29246
rao 29243
marsh@@ 29233
dante 29230
samantha 29226
sexually 29222
sco 29220
lacks 29207
má@@ 29207
die@@ 29200
verbal 29199
righteous 29197
gymnasium 29196
map@@ 29196
favored 29187
potter 29185
anu@@ 29183
lamb 29182
tail@@ 29176
ern@@ 29174
weighed 29174
colli@@ 29173
snor@@ 29173
broader 29172
dion 29172
hale 29164
utilized 29161
securing 29160
bees 29159
foo@@ 29157
imaging 29156
zu 29147
grams 29139
resistant 29119
macro@@ 29116
dove 29115
prominence 29115
gom@@ 29111
ests 29100
felix 29094
trash 29092
disbelief 29084
spacecraft 29080
operative 29073
unemployment 29070
charted 29064
arrange 29058
glare 29058
140 29038
ct 29037
knockout 29037
ith@@ 29025
wash@@ 29022
cassie 29021
revol@@ 29018
jerked 29016
trembling 29009
lesbian 29008
enacted 29007
pillar 29007
monarch 29000
dairy 28996
symbolic 28993
pupil 28987
unic@@ 28982
zar 28981
heavens 28980
speculation 28979
celebrations 28977
capturing 28975
sper@@ 28954
wade 28940
ks@@ 28936
launching 28932
dity 28928
fitz@@ 28922
eighty 28921
tricks 28920
feng 28916
pirate 28908
crimson 28906
termed 28906
1841 28901
onally 28897
ache 28896
flowed 28896
gu 28893
stays 28886
kingdoms 28879
maple 28875
atively 28863
lust 28863
superman 28861
addressing 28860
oy@@ 28857
verb 28854
spring@@ 28853
compassion 28852
mary@@ 28850
decoration 28843
cian 28841
realization 28840
eus 28837
waking 28834
acknowledge 28833
tolerance 28828
inevitable 28814
despair 28809
bald 28807
nigerian 28806
shipped 28802
possessions 28793
subspecies 28788
specially 28787
appealed 28786
conce@@ 28784
acids 28783
1844 28782
mali@@ 28782
sequ@@ 28775
lang 28770
travis 28770
rankings 28768
abundant 28763
vely 28763
charleston 28758
outcomes 28756
alled 28755
charm 28752
dash 28750
bushes 28746
wagner 28743
nasty 28742
growled 28739
highlight 28739
claws 28734
preference 28733
ij@@ 28728
interact 28725
thames 28723
sufficiently 28716
watches 28713
parameters 28712
fau@@ 28705
lette 28704
strengthen 28696
opo@@ 28692
yon 28691
appreciation 28688
repri@@ 28686
nu 28683
distress 28681
finn 28681
holocaust 28680
ggs 28677
ghosts 28676
mick 28676
affecting 28675
modes 28674
eased 28666
sius 28663
bubble 28657
dedication 28650
1836 28649
lum@@ 28646
dev 28640
beans 28639
macedonia 28637
grou@@ 28636
defining 28635
fraction 28634
gambling 28626
deputies 28625
wrestler 28624
won@@ 28618
ingredients 28617
metals 28614
dg@@ 28613
pep@@ 28607
fiscal 28605
fts 28605
prairie 28599
elliott 28598
mck@@ 28591
sterling 28591
amphi@@ 28586
bern@@ 28578
worm 28567
sic@@ 28566
ricky 28563
lett 28560
vet 28560
butter 28558
heavier 28552
ece 28551
screened 28550
1838 28547
puni@@ 28547
khal@@ 28545
protested 28540
lately 28539
tening 28539
reopened 28537
tives 28533
vault 28532
ope 28530
dreaming 28529
crum@@ 28527
homer 28527
saddle 28525
light@@ 28518
leu@@ 28515
chu 28514
switching 28512
overlooking 28503
goodness 28499
evangelical 28491
elled 28490
² 28489
marker 28488
viewer 28482
nutrition 28478
dose 28475
ethiopia 28472
sensitivity 28470
nominee 28462
salv@@ 28459
estonia 28452
baden 28450
haz@@ 28449
mound 28448
dry@@ 28445
iris 28443
paramount 28442
loosely 28439
7,000 28432
expressing 28429
seoul 28429
6,@@ 28428
pipes 28426
prizes 28424
taller 28424
carroll 28420
adam@@ 28418
mb@@ 28417
admired 28414
countless 28414
offspring 28408
resides 28407
oping 28403
fou@@ 28402
clyde 28399
module 28399
reasoning 28393
themed 28393
read@@ 28392
labeled 28387
trademark 28387
strangers 28375
winters 28375
stint 28374
arched 28370
clever 28366
uncertainty 28366
stil@@ 28363
ago@@ 28356
1500 28353
demo 28349
ilia 28345
wyoming 28343
plague 28342
orian 28339
corrupt 28338
illustrations 28338
ahmad 28337
regent 28336
reporters 28330
ket 28327
erupted 28326
eleventh 28323
wwe 28323
excluded 28321
mim@@ 28317
monarchy 28317
hana 28310
scal@@ 28308
1839 28299
meh@@ 28299
lars 28286
frances 28285
wyn 28285
ribbon 28284
colo@@ 28283
ultra 28279
sponsorship 28277
gateway 28274
ert 28273
distances 28269
auditorium 28266
laptop 28266
theft 28264
abundance 28257
lom@@ 28255
quet 28253
yacht 28250
yankees 28248
andre@@ 28247
gifted 28247
damp 28245
stressed 28245
too@@ 28228
160 28225
megan 28223
reunion 28221
alignment 28206
pron@@ 28206
archer 28205
stamp 28195
effectiveness 28194
wandering 28193
tate 28184
eni@@ 28182
gaelic 28181
sympathy 28181
derives 28179
drift 28177
detachment 28176
determining 28171
submission 28170
sexuality 28168
ū 28165
necessity 28162
eo 28161
underwater 28158
fulfill 28157
ideology 28145
nsw 28142
sketch 28141
tenants 28138
guaranteed 28137
pand@@ 28133
phases 28132
doubts 28130
olds 28130
axe 28125
bacon 28125
rides 28123
cease 28118
ett 28116
bred 28113
spiral 28113
ode 28109
controller 28107
whip 28106
financing 28102
tails 28100
sadly 28087
shre@@ 28080
alexandra 28075
enlarged 28072
slower 28065
beaches 28062
skeleton 28056
cedar 28054
mint 28049
loads 28047
bbled 28041
natalie 28038
ved@@ 28038
importantly 28034
andro@@ 28032
wool 28032
gloves 28031
foolish 28030
mak@@ 28029
daylight 28021
pel 28020
thirds 28011
tightened 28011
ples 28008
compatible 28005
highland 27997
retrieve 27995
clad 27991
amen 27989
gag@@ 27988
maxwell 27986
screw 27978
convincing 27975
trek 27968
ffy 27963
dem@@ 27955
android 27953
guar@@ 27953
stly 27950
peers 27948
sid 27948
zoo@@ 27934
sanc@@ 27925
hyp@@ 27919
convenient 27916
cos 27913
squadrons 27907
thorpe 27902
iso 27901
sop@@ 27886
formats 27885
teens 27883
fili@@ 27881
mickey 27879
carnegie 27876
disability 27876
qi 27876
cyto@@ 27875
statute 27869
percy 27866
addiction 27865
ink@@ 27855
coloni@@ 27846
employ 27844
pools 27842
protesters 27842
macdonald 27836
partnered 27832
anta 27829
art@@ 27827
bro 27826
direc@@ 27820
amine 27819
jes@@ 27814
rented 27809
salmon 27809
cycles 27808
gorgeous 27804
monetary 27804
celebrities 27803
inception 27799
petroleum 27799
kum@@ 27797
dit 27796
bean 27790
needing 27787
providence 27787
cairo 27779
decisive 27778
ancestry 27772
ambitious 27768
defenders 27768
princes 27767
colt 27760
aco 27753
drainage 27752
honda 27744
realise 27742
natives 27731
patriots 27731
pot@@ 27723
exer@@ 27716
1842 27712
bypass 27706
barton 27702
chaired 27701
icy 27701
stein@@ 27700
lian 27699
cornell 27695
thread 27691
infiltr@@ 27690
open@@ 27689
crow@@ 27687
ilo@@ 27687
prussia 27680
buff@@ 27674
thor 27673
coordinates 27670
dissolution 27667
sovereignty 27664
laboratories 27662
wich 27662
delivering 27661
correspondent 27659
ensuring 27655
indication 27654
fulfilled 27653
designing 27652
actu@@ 27648
unhappy 27648
spectators 27646
espn 27643
kosovo 27642
undertook 27640
beatles 27639
pouring 27634
accomplish 27632
affection 27622
pet@@ 27619
modeled 27616
lier 27615
leap 27602
deity 27600
iri 27600
descendant 27589
kal 27589
juvenile 27584
spark 27580
tracked 27574
norm@@ 27568
stoke 27558
institutional 27557
martin@@ 27557
puzzle 27557
jewelry 27555
eb 27554
crawford 27552
obey 27547
examining 27544
personalities 27540
slim 27537
councillor 27534
troubles 27531
galleries 27530
equations 27529
swinging 27527
ices 27523
consecrated 27521
clare 27519
ecological 27519
glimpse 27518
zach 27516
quantities 27514
stric@@ 27490
block@@ 27484
1832 27479
break@@ 27476
ein@@ 27470
cowboys 27466
targeting 27466
satisfy 27462
spike 27455
unusually 27455
chop@@ 27454
portable 27454
translations 27453
salvador 27451
gou@@ 27447
leicester 27447
meth@@ 27445
whites 27439
tomatoes 27438
nineteen 27437
surge 27435
ection 27434
observing 27433
participant 27433
habits 27423
preparations 27423
phi 27417
substantially 27413
shiny 27412
adviser 27409
invite 27407
1835 27404
phillip 27404
horns 27403
contra@@ 27402
declare 27400
dley 27395
shifts 27394
shen@@ 27389
deposit 27386
willow 27386
gestured 27385
delegate 27382
ssed 27381
conservatory 27379
poses 27379
juli@@ 27378
halted 27377
zimbabwe 27377
ght 27372
lip@@ 27371
lunar 27369
onists 27368
mour@@ 27365
atus 27353
deaf 27353
irregular 27353
erin 27352
jacob@@ 27352
outskirts 27352
baldwin 27350
della 27350
aligned 27335
sberg 27334
striker 27329
valleys 27326
rington 27321
sé@@ 27319
ave 27315
plaque 27313
nou@@ 27299
bergen 27298
fiber 27294
signaling 27283
ecuador 27276
vas 27274
upwards 27256
xavier 27256
itors 27247
emer@@ 27241
profound 27237
wick@@ 27237
ivy 27226
embraced 27223
wal 27219
detention 27213
parishes 27212
slate 27207
crept 27204
lynch 27204
remarks 27198
morality 27189
sweep 27185
sympathetic 27185
beams 27182
tari@@ 27178
constantinople 27174
viral 27171
roland 27163
ced 27160
lea 27159
ret 27148
thigh 27141
detached 27137
mem@@ 27136
t.@@ 27136
gaz@@ 27131
employers 27119
moul@@ 27117
johnston 27116
filing 27109
louisville 27109
recur@@ 27107
newman 27106
median 27105
crawled 27100
jiang 27098
tensions 27098
damages 27095
overwhelmed 27094
predators 27091
fru@@ 27081
patted 27070
eyebrow 27069
rams 27069
carson 27068
astic 27067
fortunately 27063
sherman 27060
surveys 27060
vatican 27057
andré 27055
batt@@ 27054
leapt 27046
kerry 27041
bud 27039
flags 27031
ortho@@ 27030
tioning 27029
lem@@ 27020
shima 27018
caesar 27016
thief 27015
knelt 27003
surveyed 27000
implies 26996
tying 26995
punched 26993
straw 26987
scarlet 26986
progression 26983
jeffrey 26970
humble 26966
delu@@ 26964
pyramid 26963
relates 26962
exotic 26961
betrayed 26960
slaughter 26960
zon 26960
meta@@ 26958
spray 26957
1843 26954
ulster 26946
spectacular 26944
amino 26942
affects 26940
breach 26935
deserted 26934
ā 26934
stati@@ 26933
highlands 26931
nier 26929
dong 26926
burma 26925
crane 26925
flexible 26924
audi@@ 26920
kai@@ 26917
prone 26911
sorrow 26911
p.@@ 26910
rip@@ 26906
recommendation 26904
pir@@ 26903
tivity 26901
generic 26898
terrestrial 26895
accessed 26893
trilogy 26885
genome 26882
ols 26882
then@@ 26877
winnipeg 26871
rhodes 26855
seasonal 26852
triggered 26851
forbes 26847
herzegovina 26842
bias 26839
fertili@@ 26839
resemble 26838
nottingham 26837
bey 26830
constitu@@ 26820
glorious 26813
care@@ 26809
pinned 26809
dens 26805
polished 26801
recruit 26801
brewery 26796
dignity 26790
fashioned 26790
~ 26790
beg 26784
emphasized 26776
drain 26772
tilted 26767
demolition 26764
shiva 26764
communists 26761
oman 26757
cyber@@ 26755
indul@@ 26755
ories 26752
blend 26748
yearly 26745
flip 26735
dorsal 26731
tremendous 26723
vera 26722
madonna 26715
paired 26713
transactions 26706
passages 26705
ramp 26704
forec@@ 26703
ô@@ 26703
alma 26699
stella 26696
stoc@@ 26695
colon@@ 26693
teamed 26689
processor 26688
ux 26686
tonic 26684
tire 26681
constitute 26680
abbreviated 26676
bella 26675
gle 26674
mina 26673
sac 26671
signi@@ 26670
dier 26667
grandma 26666
hanna 26661
translator 26657
swallow 26654
nut 26653
hon 26647
thanked 26643
immense 26636
nina 26636
gger 26628
ecclesiastical 26625
ucla 26616
devotion 26615
lest 26613
.舡 26610
mating 26607
ills 26606
linguistic 26605
heal@@ 26602
enables 26596
scratch 26596
selfish 26594
chassis 26593
kow@@ 26593
resign 26589
collision 26588
escaping 26588
shut@@ 26584
mlb 26580
professors 26575
11.@@ 26569
complications 26569
needle 26568
sandra 26566
deep@@ 26565
captive 26561
floated 26559
ludwig 26551
nc 26548
passionate 26547
xing 26547
termin@@ 26545
cultivated 26544
vc 26542
ough@@ 26540
cousins 26536
od 26536
shannon 26536
autonomy 26530
import 26530
southampton 26530
uring 26530
aloud 26527
papal 26527
shad@@ 26527
ira@@ 26519
octa@@ 26519
bloo@@ 26518
tland 26518
milit@@ 26517
wholly 26513
wald 26511
bugs 26509
subjected 26506
ske@@ 26504
cries 26496
yle 26487
treatments 26476
traders 26470
luxembourg 26469
prosecutor 26467
continuation 26464
guitars 26464
joh@@ 26457
repu@@ 26457
moor 26453
sociology 26451
akin 26447
upgrade 26447
shr@@ 26443
elf 26441
vid 26440
big@@ 26439
radio@@ 26439
outline 26436
summary 26436
defunct 26435
ander@@ 26427
offshore 26424
implications 26418
retaining 26408
fren@@ 26407
hea@@ 26400
tribunal 26397
forts 26395
modifications 26395
zia 26390
resided 26386
executives 26385
hm 26376
volcano 26376
boost 26375
bucket 26373
125 26362
cologne 26360
minneapolis 26358
advocacy 26357
itting 26356
rituals 26353
garbage 26352
innocence 26352
ulated 26352
automated 26348
finishes 26344
carnival 26342
ization 26336
selective 26334
ordering 26325
potent 26325
part@@ 26318
rhy@@ 26317
endo@@ 26316
johns 26315
midway 26313
eph@@ 26311
guarded 26310
bl 26309
eable 26307
diplomat 26304
differential 26299
malaysian 26298
refer@@ 26297
petty 26296
sanskrit 26293
prophets 26291
mutation 26279
theaters 26278
zio 26276
drill 26273
santo 26272
attitudes 26270
winding 26268
strained 26266
scoo@@ 26258
beasts 26251
omed 26249
hispanic 26247
dodge 26238
toby 26238
wartime 26237
crack@@ 26229
motivation 26229
promptly 26223
finalist 26220
presently 26219
shri@@ 26217
nail 26215
alu@@ 26205
kov@@ 26199
catalogue 26189
emo@@ 26188
cove 26186
amelia 26180
deb@@ 26178
dragging 26178
shortened 26168
compliance 26163
sued 26163
elena 26156
nacional 26156
ign 26153
anya 26152
sacked 26152
inventory 26146
atmospheric 26144
niece 26143
wicket 26142
jenkins 26135
breakthrough 26125
accepts 26124
haunted 26119
wrong@@ 26119
comparing 26114
calmly 26113
negotiate 26111
advocates 26104
perimeter 26099
quad@@ 26094
justified 26092
phenomena 26091
greene 26090
ain@@ 26089
oriental 26083
supervised 26083
snakes 26079
15,000 26073
swar@@ 26073
amid 26070
advancement 26068
cp@@ 26066
wasted 26064
duchess 26059
hierarchy 26056
mother@@ 26053
itating 26052
punished 26036
disciplines 26034
radius 26027
madness 26023
maría 26022
inci@@ 26020
strips 26020
financially 26019
yah 26016
ș@@ 26015
nets 26014
purchasing 26013
gene@@ 26011
err@@ 26009
illy 26007
trends 26005
unnecessary 26005
cosmic 26004
intentionally 26004
judging 26003
stefan 25998
jokes 25991
packing 25988
prosperity 25987
beef 25980
hua 25980
ousness 25975
baronet 25971
brad@@ 25966
consortium 25964
whitney 25964
transaction 25957
mented 25956
algeria 25942
angrily 25939
wanna 25939
handing 25933
bush@@ 25930
yelling 25930
tub 25926
ector 25923
aris 25920
wei@@ 25917
vicar 25913
walsh 25912
santos 25908
noticing 25907
irrigation 25903
ento 25901
lightweight 25898
specialty 25898
pays 25892
dubai 25891
nave 25889
jel@@ 25885
oured 25880
freshwater 25872
hero@@ 25869
laughs 25869
daytime 25866
expres@@ 25865
penalties 25865
yer@@ 25865
bats 25858
sharks 25854
40,000 25853
unofficial 25848
neal 25846
hiking 25844
confrontation 25843
nowadays 25842
bavaria 25841
incorporate 25835
cl 25833
goal@@ 25830
freezing 25827
collectively 25823
sidewalk 25823
brutal 25821
downstream 25819
500,000 25816
tasked 25809
lis@@ 25807
celebrating 25806
processed 25805
cafe 25797
eco 25796
retrieved 25791
neutr@@ 25787
expressway 25781
ital@@ 25777
marriages 25777
differs 25772
sf 25770
rt@@ 25767
ces@@ 25761
winger 25759
isabella 25757
micro 25755
ignorance 25753
checks 25744
inmates 25744
confession 25738
diamonds 25734
tera 25727
rack 25724
shooter 25722
rigid 25718
13.@@ 25716
medic@@ 25710
ancestor 25709
cardi@@ 25706
cav@@ 25704
fus@@ 25701
rude 25697
disgust 25693
broadly 25688
1815 25685
inserted 25684
discovering 25682
scholarly 25680
ao@@ 25676
quarry 25672
swiftly 25670
coun@@ 25668
passive 25665
rockets 25664
relied 25662
ysis 25662
folds 25659
commissioners 25654
fletcher 25654
garnered 25652
villain 25651
encoded 25647
slipping 25641
displaced 25638
lind@@ 25638
positively 25635
25,000 25634
burgh 25633
kindness 25633
reds 25632
bucks 25630
lamps 25630
umbrella 25627
omar 25626
ables 25617
demise 25612
eing 25610
7,@@ 25608
mage 25605
corp 25603
tured 25602
clip 25597
ferguson 25597
succeeding 25595
aberdeen 25590
accusations 25588
conventions 25584
muscular 25579
nica 25579
morton 25575
perfection 25573
impres@@ 25568
poster 25567
accurately 25566
sicily 25562
xbox 25562
competitor 25561
goat 25553
atically 25545
economist 25545
sei 25538
locker 25534
crashing 25533
incomplete 25533
daisy 25523
teenagers 25520
dumb 25518
whereby 25517
nen 25512
vibr@@ 25509
dab@@ 25507
ceremonial 25502
cans 25501
mobility 25497
broadcaster 25494
prolific 25493
analog 25489
watershed 25489
dent@@ 25486
geoffrey 25483
berg@@ 25482
chilean 25480
2.0 25478
contributor 25478
riots 25475
afghan 25472
alisation 25472
spon@@ 25471
dir 25469
helicopters 25469
dded 25468
pretending 25467
bei 25465
drowned 25463
manship 25463
descriptions 25460
moist 25460
funk 25458
tailed 25452
refugee 25449
rite 25449
lydia 25448
xx@@ 25448
ivory 25445
telescope 25441
leisure 25435
bliss 25433
spit@@ 25425
papa 25422
lad 25420
comb@@ 25409
violently 25409
teammates 25406
slovakia 25401
janeiro 25399
earth@@ 25397
1880s 25396
passport 25392
aesthetic 25390
kindergarten 25390
conclusions 25386
pedi@@ 25384
strode 25383
heel 25381
linux 25378
bulls 25377
bruno 25375
ffing 25375
garcia 25375
1,500 25372
mund 25370
sax@@ 25361
zier 25361
suppressed 25355
grocery 25349
nazis 25349
anthem 25345
illi@@ 25341
inability 25340
α 25338
rt 25337
recovering 25336
grandparents 25334
tortured 25333
dwell 25332
murmured 25327
stine 25323
seller 25320
mollusk 25316
judy 25310
flashing 25309
gloria 25308
revenues 25305
brady 25294
thighs 25289
tipped 25287
documentation 25285
swamp 25282
apa 25278
cci 25276
assessed 25275
ru 25269
pou@@ 25267
transi@@ 25263
offs 25262
survivor 25261
ased 25254
probable 25248
stab@@ 25246
llc 25237
mobil@@ 25237
tissues 25236
roar 25233
antes 25232
utterly 25231
aller@@ 25224
subdivision 25223
agan 25222
gui@@ 25221
joyce 25205
brains 25201
ired 25201
poker 25197
vie 25194
chs 25192
molecule 25189
awe 25188
chloe 25178
hawaiian 25178
bombardment 25176
wears 25168
synagogue 25167
visa 25167
archaeology 25166
sett@@ 25165
4.5 25162
negotiated 25159
ral@@ 25151
comeback 25149
calvin 25146
reef 25144
chased 25143
landscapes 25143
dusty 25142
stamps 25140
disposal 25139
dice 25138
imagery 25137
curling 25134
wo 25133
murderer 25132
amm@@ 25131
rejection 25131
suspects 25130
tural 25127
penn@@ 25124
sailor 25122
europeans 25121
liberals 25121
reject 25120
straightened 25117
pod@@ 25115
jasper 25114
hairs 25106
transparent 25103
nash 25096
stad 25092
narrator 25089
mortality 25088
apologize 25087
peasants 25080
sang@@ 25073
50th 25072
classrooms 25060
induc@@ 25053
binary 25049
explicit 25046
cler@@ 25045
convenience 25044
domains 25044
adap@@ 25041
boris 25033
alt 25032
itv 25028
pissed 25022
dling 25021
nascar 25021
brook@@ 25020
textile 25013
lima 25012
overtime 25009
abi 25006
nonsense 25003
ño 25002
humanities 25001
loaned 24993
patricia 24989
confirmation 24983
grandchildren 24983
painters 24981
b.a 24977
1834 24976
eo@@ 24973
reas@@ 24973
cheer@@ 24971
dialects 24971
filmmaker 24969
affir@@ 24963
agnes 24962
greeks 24949
ufc 24947
sible 24946
unesco 24944
patrons 24943
paci@@ 24942
rip 24939
accidents 24931
awesome 24925
beneficial 24925
undergo 24920
castro 24911
minerals 24911
picnic 24909
newfoundland 24904
yugoslav 24904
eurovision 24902
hardt 24900
repaired 24900
shop@@ 24897
granddaughter 24896
spatial 24896
chronicles 24893
tain@@ 24892
jen 24886
sant@@ 24883
decay 24880
bott@@ 24878
logies 24877
pam@@ 24877
shone 24871
disappearance 24869
lc 24869
psychic 24868
soaked 24867
kem@@ 24865
kn@@ 24857
shirley 24856
varsity 24851
costumes 24846
clusters 24844
supervisor 24842
stray 24832
stalin 24824
bhu@@ 24820
default 24818
nodding 24818
lav 24816
precipitation 24816
memorable 24812
1814 24807
algebra 24806
sideways 24804
squeeze 24804
cum 24801
gandhi 24800
chur@@ 24799
ttes 24799
mw 24797
ios 24795
tow 24795
peaking 24794
allison 24793
karnataka 24793
main@@ 24791
bind 24789
viable 24775
ballad 24772
augustus 24771
healed 24769
clash 24768
copa 24768
prophecy 24762
bounced 24758
coordination 24757
knot 24750
apprentice 24748
rd 24748
quarter@@ 24744
pius 24743
ddled 24742
grim 24731
apology 24729
mistaken 24725
budapest 24724
lebanese 24724
assess 24720
exited 24719
oy 24719
boun@@ 24717
syracuse 24717
tempo 24708
ashi 24707
logging 24706
mister 24706
scots 24704
steep@@ 24704
ps@@ 24703
neighbours 24702
sensors 24702
atp 24700
sacramento 24696
bard 24694
tavern 24693
brotherhood 24690
ool 24687
consul 24681
lok 24680
gore 24677
vein 24675
camping 24665
ventures 24661
vernon 24661
breakdown 24653
phosp@@ 24642
gabe 24640
dging 24637
fortified 24637
medication 24633
notorious 24633
commercials 24630
substances 24614
karma 24613
chartered 24612
cliffs 24612
salon 24611
hes@@ 24610
asserted 24607
resembles 24604
dorf 24600
inscriptions 24600
barriers 24598
profitable 24595
ringing 24595
merge 24592
privilege 24591
dish@@ 24589
inga 24579
falcon 24577
ares 24574
hath 24574
ninety 24574
atom 24566
caleb 24558
anese 24555
ingo 24555
attachment 24550
ming@@ 24546
adjust 24544
alleg@@ 24543
bridge@@ 24541
bos 24537
descending 24534
emotionally 24534
analyst 24533
devils 24529
gler 24529
contrac@@ 24521
strengthened 24519
gable 24516
aul@@ 24511
georges 24510
concealed 24501
amazed 24500
py 24500
migrated 24497
eti@@ 24495
polite 24491
shers 24485
declaring 24484
tablet 24479
news@@ 24473
sei@@ 24471
toyota 24471
heinrich 24466
remake 24463
cking 24462
playwright 24461
atlas 24459
aisle 24450
fits 24450
dz@@ 24448
miserable 24445
aine 24444
coined 24440
park@@ 24437
flint 24435
cers 24432
vau@@ 24430
abbot 24418
philippe 24418
clarity 24416
delicious 24415
nucleus 24415
depressed 24414
alto 24403
cultivation 24401
miniature 24400
curator 24396
ft@@ 24395
ditch 24394
ounded 24394
hurling 24393
evacuated 24392
spur 24391
meadow 24390
silva 24388
fraternity 24386
khu@@ 24386
receptors 24386
counterpart 24384
folding 24383
sticking 24381
debts 24377
fav@@ 24376
alex@@ 24374
hauled 24373
trailed 24373
violations 24373
urgent 24372
plum@@ 24370
patches 24367
mitch 24365
inas 24359
sweeping 24359
mumbled 24357
ronnie 24357
ault 24352
singular 24333
doo@@ 24319
rel 24319
akers 24317
persecution 24315
sbury 24313
commissions 24312
rox@@ 24311
supplement 24309
vall@@ 24309
myanmar 24307
scare 24307
shores 24307
rae 24306
ections 24304
aiming 24302
whe@@ 24302
heavenly 24297
telecommunications 24294
escapes 24293
spit 24289
chir@@ 24287
rem@@ 24287
norm 24285
pits 24282
spac@@ 24277
bombay 24276
challenger 24276
planting 24270
prose 24266
burger 24265
frequencies 24260
ernst 24255
200,000 24251
instinct 24246
nicolas 24245
pipeline 24245
simulation 24244
donation 24242
quez 24241
lineage 24239
standings 24239
thes 24239
105 24237
insect 24235
maur@@ 24235
alphabet 24233
cot 24228
auburn 24226
benef@@ 24224
charming 24221
kazakhstan 24218
appoint 24208
racism 24208
shru@@ 24203
aft 24201
conn@@ 24201
berries 24197
scary 24197
dixon 24195
ensuing 24195
aldo 24190
chak@@ 24184
promotes 24183
fiji 24181
affiliation 24179
int@@ 24178
memoir 24173
mackenzie 24168
yas@@ 24168
prin@@ 24166
extant 24160
sound@@ 24159
persuade 24149
underway 24149
nin@@ 24148
reduces 24140
confront 24133
righteousness 24133
doom 24130
kick@@ 24130
oro 24130
andre 24128
melted 24127
1820 24124
herman 24124
concentrations 24123
frac@@ 24122
announcing 24120
freeman 24115
appe@@ 24112
chri@@ 24112
bloom@@ 24108
deutsche 24108
bry@@ 24105
carey 24104
countess 24102
wheelchair 24102
feat 24100
cola 24096
demonstrations 24095
resisted 24094
eur@@ 24089
venus 24088
tibetan 24084
individually 24081
visu@@ 24081
paced 24079
1831 24078
vered 24073
dre 24072
casually 24071
constituencies 24069
roberto 24068
shotgun 24068
tle@@ 24068
stal 24067
behold 24065
necklace 24065
tious 24060
itable 24056
nagar 24053
emergence 24052
lantern 24050
emeritus 24049
victorious 24044
12.@@ 24043
ik 24034
institutes 24034
acquiring 24031
3000 24026
manning 24023
pageant 24020
attractions 24010
oxide 24008
shelves 24008
cuisine 24001
thir@@ 24000
guatemala 23995
hetero@@ 23995
boulder 23992
midland 23989
worldly 23981
cowboy 23980
esa 23975
additions 23974
saves 23974
anita 23972
cindy 23969
bedford 23961
excluding 23959
xy@@ 23959
dation 23951
publishes 23950
submarines 23950
smu@@ 23937
deed 23936
ip 23936
og 23936
lifelong 23932
rer@@ 23932
imperi@@ 23929
tallest 23928
crude 23927
ital 23927
o.@@ 23927
sidney 23923
patriarch 23922
continuity 23918
implied 23911
fuller 23908
smashed 23903
davidson 23902
vari@@ 23902
norton 23897
aquatic 23893
brightly 23893
ions 23893
doubted 23887
pd 23887
cumberland 23886
proving 23886
appointments 23883
sodium 23879
usc 23877
abor@@ 23876
mantle 23875
turks 23870
poin@@ 23869
gent@@ 23863
commentator 23860
grouped 23859
agony 23856
ice@@ 23855
insufficient 23849
1833 23846
alla@@ 23845
suffolk 23842
dominion 23839
entertaining 23839
contestant 23836
onom@@ 23836
theatres 23836
bene@@ 23834
fond 23833
inqu@@ 23833
impacts 23831
ema 23827
unexpectedly 23821
ashamed 23819
benedict 23814
adju@@ 23811
outlet 23811
authentic 23808
dominic 23804
defenses 23796
consciously 23792
fleeing 23792
thomson 23788
hectares 23781
inflation 23780
scriptures 23771
photographic 23770
revi@@ 23770
coronation 23765
backpack 23761
pas 23761
feud 23759
infl@@ 23757
sauce 23756
utter 23756
weekends 23756
candle 23755
rai@@ 23754
rewarded 23749
orbital 23745
generator 23744
adjoining 23741
inferior 23740
hell@@ 23737
ager 23733
leone 23733
notices 23733
flan@@ 23732
responding 23732
bizarre 23730
gibraltar 23726
ston@@ 23725
fore 23724
apostolic 23719
creativity 23716
bee@@ 23714
lisbon 23712
valentine 23709
uncommon 23702
soils 23700
nar 23696
laden 23694
expired 23691
ado@@ 23690
resume 23690
composite 23681
chant 23675
approve 23674
marrying 23673
vol 23671
optional 23668
ected 23666
liquor 23656
drawer 23654
worms 23649
tanzania 23644
deton@@ 23638
whale 23638
alco@@ 23635
educator 23635
aar@@ 23632
trinidad 23631
urus 23627
astronomy 23626
chev@@ 23625
1.2 23621
check@@ 23621
devastated 23620
store@@ 23616
safer 23613
offerings 23611
dist@@ 23610
frown 23609
nh 23603
capped 23602
invest 23601
raz@@ 23600
wendy 23600
parkway 23595
ute 23592
aluminum 23587
wipe 23582
defen@@ 23581
kro@@ 23579
short@@ 23577
alls 23571
immortal 23571
madame 23569
arium 23565
owl 23564
chrome 23556
comb 23556
nikol@@ 23553
vali@@ 23552
packs 23551
motorway 23550
dhar@@ 23543
stephanie 23541
tings 23541
coordinated 23538
logs 23536
shades 23527
robots 23526
maharashtra 23524
aters 23521
gardner 23521
tasmania 23510
kath@@ 23504
jorge 23500
trin@@ 23488
floyd 23486
injection 23486
cadet 23481
teresa 23479
webb 23479
wrath 23478
dominance 23474
sak@@ 23474
carrie 23471
eline 23471
retro@@ 23458
divi@@ 23453
incorporating 23452
chennai 23449
iny 23448
tak@@ 23446
councillors 23444
ż@@ 23443
atures 23442
theo@@ 23441
constituent 23434
ots 23434
occurrence 23433
webster 23433
contractor 23432
psychiatric 23432
fearing 23429
coleman 23423
tides 23423
elvis 23420
flour 23420
gha@@ 23420
commemorate 23419
extra@@ 23416
ple 23414
embarrassment 23407
phon@@ 23404
winter@@ 23404
hir 23400
ting@@ 23399
tonnes 23396
itunes 23392
socially 23389
stol@@ 23388
scanning 23384
sever@@ 23384
ddle 23382
cara 23380
resemblance 23380
ond 23377
occupying 23374
factions 23371
supper 23371
wingspan 23370
armament 23369
sketches 23369
marcel@@ 23368
ghts 23363
forestry 23362
raven@@ 23361
2d 23358
mix@@ 23346
scop@@ 23346
assassin 23344
sio 23344
organis@@ 23341
piper 23341
qatar 23341
appro@@ 23339
pots 23338
robbery 23329
seri@@ 23325
ectors 23321
quick@@ 23321
inclined 23320
podium 23320
det 23317
14.@@ 23310
intake 23307
declining 23306
tunes 23302
trailing 23300
crystals 23290
premium 23286
hind@@ 23285
jules 23282
uruguay 23282
blows 23277
successes 23276
freeze 23274
coma 23272
hosp@@ 23271
hem 23268
italia 23268
nil@@ 23263
organizational 23262
pods 23260
person@@ 23259
sparks 23259
ects 23258
sv@@ 23246
skip 23244
conrad 23242
sponsors 23236
gow@@ 23232
scenic 23230
brake 23228
bricks 23226
ophy@@ 23222
skiing 23221
elo@@ 23220
gill@@ 23217
rotating 23215
obstacles 23211
arabs 23210
coats 23206
subtropical 23206
submerged 23204
seeded 23203
tine 23200
comm@@ 23198
leipzig 23198
telugu 23197
lena 23196
lethal 23196
tragic 23196
intru@@ 23195
jah 23195
prevalent 23190
jung 23186
vague 23185
stin 23176
stabbed 23174
colorful 23170
ddin 23169
enthusiastic 23158
elling 23153
tip@@ 23151
box@@ 23150
solitary 23150
sophomore 23147
feeds 23146
stirred 23140
dresses 23139
fum@@ 23137
docks 23135
fireplace 23125
sensing 23122
westward 23121
licensing 23120
woody 23118
rites 23116
acies 23110
bash@@ 23109
lotus 23105
speeches 23091
listeners 23090
phal@@ 23089
cerambycidae 23088
pagan 23082
prefer@@ 23079
brett 23078
pioneers 23076
anthropology 23065
aph@@ 23065
facto 23065
stereo@@ 23064
reactor 23062
norwich 23057
sands 23055
calcium 23051
destructive 23045
potatoes 23044
lowe 23042
kets 23035
eighteenth 23032
virtu@@ 23031
pike 23030
cockpit 23028
omni@@ 23026
clement 23023
nah 23020
bt 23018
obli@@ 23018
plas@@ 23016
onset 23013
shaw@@ 23013
inging 23011
canceled 23005
tax@@ 22999
georgetown 22998
chapman 22991
financed 22991
mohammad 22991
gop@@ 22988
realism 22984
stripes 22983
sanders 22980
illuminated 22979
abel 22976
madagascar 22975
observers 22975
velvet 22972
genetics 22970
hissed 22970
kidney 22969
folklore 22968
motto 22963
tist 22962
bree@@ 22957
jun 22951
sneak 22951
pastoral 22947
bolivia 22946
attain 22943
ellie 22941
plug 22940
farewell 22936
platoon 22934
masculine 22931
grav@@ 22923
complement 22921
subsi@@ 22920
breaths 22919
destined 22918
nat 22918
bengali 22917
eng 22915
downward 22913
bolton 22911
jupiter 22910
fry 22908
mart@@ 22906
catal@@ 22904
europa 22902
dah 22900
portrayal 22899
posthumously 22895
comply 22890
combines 22886
deri@@ 22885
garrett 22885
darren 22884
mani 22884
reside 22884
unfortunate 22881
brain@@ 22880
semi@@ 22879
caste 22873
intend 22873
omo 22869
calli@@ 22865
sity 22865
safe@@ 22864
snails 22860
fisheries 22857
dem 22856
pioneering 22856
list@@ 22850
schmidt 22849
panthers 22846
risen 22845
constantine 22840
encompasses 22840
edged 22834
forewings 22829
nods 22824
survives 22823
wrapping 22823
yman 22822
grinning 22821
balloon 22819
airplane 22817
comparative 22817
pler 22817
desi@@ 22816
therapeutic 22815
partition 22814
touches 22814
sly 22811
fresh@@ 22808
rains 22806
percussion 22803
stone@@ 22802
cos@@ 22801
unanimous 22800
zan 22798
firearms 22797
cu 22796
ethno@@ 22795
rom@@ 22795
deposited 22793
tires 22792
refusal 22790
assure 22789
strangely 22786
handball 22784
oversaw 22780
coffin 22778
dolphins 22776
extrac@@ 22772
stables 22771
tad@@ 22771
owski 22766
dj@@ 22764
quote 22763
mapping 22756
tumors 22751
1890s 22750
vene@@ 22750
judgement 22749
ason 22746
chemist 22744
mathe@@ 22738
accumulated 22737
defendant 22737
trout 22737
sheikh 22735
tr 22734
judaism 22730
prohibition 22729
curtains 22725
uncovered 22724
advent 22723
teddy 22723
herd 22720
tech@@ 22713
extre@@ 22709
giggled 22703
batted 22701
phen@@ 22699
ffe 22697
bibli@@ 22696
preten@@ 22696
raises 22688
libya 22685
inae 22684
yama 22683
joy@@ 22681
wear@@ 22681
atter 22680
hostage 22679
bays 22670
flats 22670
zz 22669
normandy 22665
rafael 22665
cigarettes 22659
styled 22646
orient@@ 22640
viol@@ 22638
sensor 22635
nobles 22634
apex 22631
slumped 22629
sorted 22625
sickness 22624
lew@@ 22620
worcester 22620
neo@@ 22619
ovich 22619
riverside 22617
sant 22617
bill@@ 22612
dings 22605
exploitation 22603
intervals 22600
ements 22599
gp 22595
tapes 22594
trousers 22593
cambodia 22592
iter@@ 22591
posting 22591
1825 22585
sitcom 22585
mentation 22584
annexed 22581
treats 22578
paro@@ 22577
persistent 22577
combe 22573
fade 22569
nai@@ 22561
nano@@ 22561
rican 22559
lace 22557
cao 22555
humid 22553
ere@@ 22550
recommend 22544
citation 22541
evacuation 22540
destroyers 22539
flung 22539
chus 22537
ott 22537
replies 22532
kawa 22531
accor@@ 22527
arches 22527
ouse 22526
volunteered 22526
hector 22525
evaluate 22524
zor@@ 22524
mortgage 22510
repertoire 22508
negro 22505
regina 22497
concer@@ 22495
recognise 22490
cation 22482
iss@@ 22480
czechoslovakia 22479
rai 22478
schooling 22476
silicon 22476
coordinate 22475
discharged 22472
vil 22472
vince 22472
who@@ 22469
nationalism 22463
temper 22460
bundle 22459
naz@@ 22459
lasts 22454
helpless 22453
tiers 22451
awaiting 22450
hurting 22448
wong 22444
cass 22440
trench 22438
lai 22435
outright 22434
employs 22431
televised 22429
buzz 22428
plots 22427
wax 22426
iti 22425
dismis@@ 22421
phs 22415
dman 22414
eni 22411
markings 22408
nac@@ 22408
sie@@ 22408
cram@@ 22399
lowering 22399
spanning 22397
tible 22397
beck@@ 22396
chet 22390
alternatively 22389
believer 22389
patterson 22389
ecology 22386
adapt 22385
travelers 22383
tual 22383
dl 22380
physi@@ 22378
enlightenment 22376
mohammed 22376
assisting 22372
yaz@@ 22369
nitrogen 22366
michel@@ 22365
encouragement 22358
projection 22352
extinction 22350
logistics 22350
savannah 22345
20s 22342
450 22340
coff@@ 22339
elu@@ 22338
batch 22337
aud@@ 22333
circuits 22331
triangular 22331
moonlight 22330
denis 22327
preacher 22327
nt 22325
interval 22321
communism 22316
rails 22308
reinforcements 22307
drought 22303
boyd 22300
garh 22300
crafts 22299
vanessa 22297
keepers 22293
phantom 22293
zombies 22292
hide@@ 22290
upstream 22287
hooked 22282
squir@@ 22279
fas@@ 22278
adolf 22276
knives 22269
hardcore 22265
llan@@ 22256
shly 22254
gb 22253
justify 22251
champagne 22247
kle 22245
amused 22239
circa 22235
gwen 22233
intern@@ 22229
denti@@ 22221
expon@@ 22219
accelerated 22218
electorate 22218
vet@@ 22218
delays 22215
catalog 22214
jing@@ 22214
rebuild 22213
alicia 22212
conditioning 22211
developmental 22209
builders 22204
este@@ 22202
puzzled 22198
wheeler 22196
browns 22194
khan@@ 22194
rogue 22192
blue@@ 22191
fragile 22191
recognizing 22189
mona 22188
whipped 22188
inviting 22185
wing@@ 22185
goose 22182
marx 22180
1821 22175
brakes 22172
hipp@@ 22163
navig@@ 22158
inadequate 22157
recruiting 22157
francesco 22155
violated 22153
disturbing 22150
interred 22148
wom@@ 22146
similarity 22145
liability 22138
barrett 22137
vista 22135
screenwriter 22129
extract 22123
cecil 22122
prob@@ 22122
lumber 22120
lindsay 22119
specification 22117
scrambled 22114
spoon 22114
eds 22111
after@@ 22108
instruc@@ 22108
helsinki 22106
inventor 22103
exceed 22102
begged 22099
spiders 22097
shipyard 22092
wildly 22090
icks 22089
yers 22087
sos 22086
grapher 22084
obscure 22084
slides 22079
turk@@ 22079
colombian 22077
misery 22076
antenna 22075
bur 22075
dawson 22074
· 22074
genocide 22070
tay@@ 22069
amended 22068
discourse 22066
benny 22064
canopy 22064
lake@@ 22060
trustee 22058
transcription 22057
separating 22056
electr@@ 22053
podcast 22053
ī 22052
ord 22048
ide 22040
bless 22038
exposition 22036
counterparts 22035
1810 22034
jessie 22030
herb 22029
witches 22029
showcase 22027
damaging 22023
wimbledon 22023
grabs 22021
unlocked 22021
β 22012
− 22011
institu@@ 22010
malay 22010
tearing 22010
organism 22009
constable 22007
rental 22006
greg@@ 22000
labs 21999
pending 21998
dden 21993
matthews 21992
lav@@ 21991
automotive 21989
sfield 21988
ense 21985
zeus 21980
1828 21979
eminent 21979
stroked 21978
thel@@ 21977
transferring 21977
reich@@ 21976
reformation 21975
haiti 21972
canberra 21966
hiatus 21957
botanical 21943
hari 21942
airports 21939
舗@@ 21930
sore 21928
avery 21925
erosion 21925
excavations 21924
rhi@@ 21923
debates 21922
sett 21922
dioxide 21918
communion 21915
atu@@ 21911
willis 21911
jian 21901
reich 21900
lik@@ 21899
tidal 21896
30th 21894
barb@@ 21892
peterson 21892
metacritic 21891
renewal 21888
saxony 21887
crescent 21886
unseen 21884
spears 21881
commodore 21879
madras 21879
zak@@ 21878
unnamed 21876
obliged 21874
recognizes 21873
wagons 21872
nos 21869
pigs 21867
olo 21866
bryant 21865
evaluated 21865
cube 21863
kashmir 21863
resembled 21859
clayton 21858
aura 21857
gem 21856
shment 21853
pga 21850
fiery 21849
tled 21849
freak 21846
tton 21846
failures 21844
fringe 21841
blessings 21838
currents 21835
reacted 21835
ez@@ 21834
stling 21828
mirrors 21825
benson 21820
float 21820
hastings 21816
estonian 21810
mega 21809
presumed 21809
privileges 21808
limiting 21807
ün@@ 21807
noises 21803
behaviors 21802
stool 21801
reviewing 21799
algorithms 21798
obl@@ 21798
rapids 21798
reck@@ 21796
bates 21793
moor@@ 21793
tch@@ 21791
pablo 21790
displaying 21789
compelled 21788
sport@@ 21787
suggestions 21787
terrorists 21785
shakes 21784
seals 21782
rejoined 21778
shawn 21778
arabian 21776
meaningful 21767
flicked 21766
philharmonic 21765
quarterfinals 21761
wonders 21760
wrists 21760
0,000 21759
fascist 21758
kiev 21757
determin@@ 21755
dispatched 21750
gratitude 21750
veil 21746
mvp 21745
confluence 21744
disabilities 21742
popul@@ 21740
sour 21740
rot@@ 21738
sinclair 21738
½ 21738
confessed 21737
cari@@ 21730
broo@@ 21726
ees 21725
bas 21720
papua 21719
án@@ 21718
mb 21717
embr@@ 21709
vik 21708
sas 21706
gossip 21705
dodgers 21704
albion 21703
fcc 21701
chord 21698
devastating 21696
ashore 21695
guardians 21695
mascot 21692
astronomical 21690
monte@@ 21688
winchester 21688
hesitation 21686
obligations 21686
carr 21683
clarence 21683
spans 21679
lati@@ 21677
laundry 21677
pos 21676
denial 21674
maturity 21674
candles 21673
cnn 21673
sparked 21670
guiding 21662
consul@@ 21661
slavic 21660
wesley 21659
equilibrium 21651
twisting 21650
oney 21648
nh@@ 21647
jacksonville 21646
oaks 21646
elliot 21645
detained 21644
jonas 21644
whistle 21643
levi 21642
bering 21640
reddish 21640
exeter 21638
brethren 21637
stina 21637
raw@@ 21634
poetic 21633
melo@@ 21631
permits 21624
beverly 21623
abdomen 21622
1824 21618
para@@ 21616
ás 21613
exiled 21608
stretches 21607
coul@@ 21605
heral@@ 21603
vial 21602
nora 21601
outlined 21601
tts 21600
graphical 21599
dared 21593
warden 21593
testified 21592
floods 21585
recruits 21584
preparatory 21583
24th 21578
fitzgerald 21576
patr@@ 21574
beh@@ 21572
dea 21572
erect 21572
fertile 21571
meadows 21568
oz@@ 21568
reminiscent 21568
dumped 21565
mons 21564
romeo 21560
swore 21560
character@@ 21559
mug 21557
cheng 21556
aggression 21548
asing 21548
anatomy 21547
dora 21547
commu@@ 21546
outward 21546
bbs 21544
peculiar 21544
saga 21544
constructing 21540
duet 21540
anic 21539
rift 21536
unstable 21536
sutton 21534
vad@@ 21531
vocational 21531
analyzed 21530
abi@@ 21528
aurora 21528
fuselage 21527
imaginary 21521
yar 21520
sacks 21519
bloom 21517
glit@@ 21516
1829 21515
greens 21515
hiring 21515
christ@@ 21511
procession 21510
campuses 21500
specializing 21500
dder 21494
nursery 21490
sb 21490
pol 21489
smel@@ 21487
iconic 21486
investor 21476
praising 21475
reproductive 21475
scot@@ 21471
dreamed 21468
alison 21467
match@@ 21467
irene 21465
vfl 21463
baum 21461
coinci@@ 21456
waterfall 21454
fellows 21447
introduces 21446
admits 21444
mccarthy 21439
insi@@ 21437
tionally 21437
sians 21436
evelyn 21433
polls 21431
thre@@ 21429
acht 21418
wra@@ 21418
td 21416
veronica 21415
columnist 21413
wit 21413
mafia 21412
updates 21412
acs 21410
peters 21409
miracles 21408
archdiocese 21402
oka 21402
oppose 21402
destinations 21400
lever 21398
mk 21395
ilo 21390
frank@@ 21389
claw 21388
strokes 21387
quarterly 21386
alcoholic 21385
splitting 21384
buster 21381
inte@@ 21381
farm@@ 21379
behave 21378
cares 21368
peace@@ 21368
accounted 21364
renewable 21363
dude 21360
tionist 21359
try@@ 21359
gis@@ 21352
mian 21352
rama 21352
pathways 21351
pharmaceutical 21350
regulate 21348
colum@@ 21347
exports 21345
rant 21343
ledge 21342
turtle 21340
saul 21336
db 21331
modification 21331
magistrate 21328
archipelago 21325
yanked 21325
quin 21322
repeating 21320
pilgrimage 21319
pavement 21314
baba 21310
pix@@ 21308
interfere 21303
minorities 21297
ridden 21297
bowls 21294
derivative 21283
ocy@@ 21280
ideals 21279
kicks 21279
branding 21278
concludes 21276
orum 21275
ør@@ 21275
occupies 21270
someday 21267
parody 21264
belarus 21261
obligation 21255
suffrage 21255
sche 21254
flute 21250
fading 21249
luckily 21247
stro 21244
dane 21241
eving 21237
piercing 21237
tattoo 21234
assignments 21232
ropes 21232
satellites 21232
disco 21228
snatched 21227
grad 21226
ès 21222
practitioners 21220
rooted 21220
boarded 21214
reson@@ 21213
schi@@ 21211
tugged 21211
dani@@ 21208
need@@ 21206
congressman 21205
iz 21204
mae 21203
diabetes 21201
originating 21201
blankets 21199
byron 21190
isms 21189
disappearing 21188
laurie 21187
ail 21186
geology 21184
incoming 21181
displacement 21178
latvia 21177
incorporates 21175
collectors 21174
eville 21167
aker 21165
lazy 21157
cartoons 21155
sud@@ 21152
xu@@ 21152
jeff@@ 21151
sensi@@ 21147
alla 21143
decom@@ 21143
investigators 21141
momentarily 21136
worries 21136
affordable 21131
stocks 21131
chard 21130
jew 21125
sby 21125
aviv 21124
verdict 21122
haj@@ 21116
overly 21112
luna 21108
almighty 21107
sation 21106
montenegro 21105
neglected 21105
reproduction 21098
begging 21094
conclude 21094
oud 21090
greeting 21088
allegiance 21084
mai 21079
alps 21071
nett 21071
centr@@ 21067
vikings 21067
g.@@ 21060
eria 21059
installations 21059
islam@@ 21059
advertisements 21055
vable 21055
apol@@ 21052
andra 21048
discarded 21046
gasoline 21046
guer@@ 21045
carlisle 21044
visibility 21044
spokesman 21040
nonprofit 21038
anchored 21037
communal 21037
patents 21034
dispo@@ 21031
ener@@ 21028
proportional 21028
nly 21022
cautiously 21021
ands 21018
crawl 21015
preaching 21014
tasted 21014
metro@@ 21012
cakes 21011
residency 21008
custom@@ 21004
1.6 21002
jerome 21001
vicious 20997
dripping 20995
wires 20993
baghdad 20990
hemisphere 20990
devised 20988
sincere 20985
70s 20983
georgi@@ 20979
ffle 20977
brittany 20974
ein 20971
hausen 20971
rebuilding 20966
sim 20965
vines 20965
gran 20964
definite 20962
jumps 20962
bir 20960
rendering 20960
pia 20957
meredith 20956
patriotic 20953
pam 20952
spat 20950
ë 20949
hai@@ 20942
prolonged 20942
cubs 20939
yourselves 20939
consuming 20938
pills 20937
limp 20934
ador 20932
manifest 20928
simmons 20924
scen@@ 20921
pearson 20919
gdp 20918
ito 20914
corin@@ 20907
aster 20902
adverse 20894
dispersed 20890
drum@@ 20890
urging 20889
constraints 20888
dio@@ 20886
posters 20886
refined 20885
cruci@@ 20884
socialism 20884
sheila 20883
hm@@ 20876
upside 20874
fills 20868
struc@@ 20860
marty 20859
origin@@ 20857
slovak 20856
cyclo@@ 20854
song@@ 20854
dn@@ 20853
1813 20851
clicked 20850
autom@@ 20848
ferrari 20846
102 20845
coke 20845
cies 20840
schwar@@ 20838
termination 20838
rha@@ 20835
spra@@ 20834
surf 20834
famine 20833
trum@@ 20826
trou@@ 20820
scratched 20818
debbie 20816
definitions 20810
identifies 20809
messiah 20809
midwest 20805
malayalam 20802
dissertation 20801
división 20801
thri@@ 20801
moisture 20796
behavioral 20792
exams 20792
peasant 20792
paula 20788
laurel 20784
alberto 20779
compartment 20776
omaha 20776
cover@@ 20775
deliberate 20772
yemen 20772
80s 20769
batsman 20769
potato 20769
thorn 20769
lement 20767
ampli@@ 20764
predict 20761
elijah 20754
heroic 20750
programmed 20746
pact 20745
stow 20744
thra@@ 20742
yon@@ 20740
'connor 20737
yell 20736
copied 20733
informs 20733
calcutta 20731
time@@ 20731
bmw 20729
sights 20726
gamma 20724
ador@@ 20716
planetary 20715
endor@@ 20712
interpretations 20712
reminds 20712
announce 20710
node 20709
melting 20708
theirs 20705
hum 20704
relieve 20704
slightest 20704
exceeded 20703
ingu@@ 20700
wee 20700
cooler 20699
dys@@ 20699
explores 20698
whispers 20692
kand@@ 20688
7.5 20687
15.@@ 20686
conspir@@ 20685
soviets 20685
jad@@ 20679
cue 20677
iman 20676
toledo 20674
gra 20672
expose 20670
n.@@ 20669
hearted 20668
nati@@ 20668
sustain 20663
corporal 20662
wiping 20662
jesuit 20661
semin@@ 20659
diminished 20657
thick@@ 20657
tial 20657
gate@@ 20652
cb 20651
syndicated 20647
gation 20644
anu 20643
disguise 20643
networking 20643
consume 20640
bust 20637
alec 20635
onism 20632
jess 20630
cents 20624
huang 20621
motive 20619
competes 20612
dless 20605
hartford 20601
mouths 20601
ación 20600
catcher 20599
hermann 20589
amidst 20588
keyboards 20588
awoke 20585
ference 20585
inscribed 20584
roared 20580
alam@@ 20579
four@@ 20578
extraction 20574
delighted 20571
indirect 20567
ead 20564
ht 20564
sustainability 20560
cbc 20559
undergoing 20558
neurons 20555
trumpet 20553
hamp@@ 20552
newark 20550
christina 20548
hn@@ 20547
stereo 20543
surpassed 20539
coron@@ 20531
electrons 20530
midlands 20530
dges 20528
sculp@@ 20528
hec@@ 20524
hack@@ 20520
vivi@@ 20520
clas@@ 20519
1818 20516
socks 20515
wr 20515
ibrahim 20512
22nd 20511
turf 20511
feu@@ 20509
holt 20505
pressures 20505
whiskey 20505
frankie 20498
fati@@ 20497
raped 20497
staggered 20493
lent 20492
visi@@ 20490
distribute 20487
inal 20482
cultiv@@ 20480
nm 20478
traction 20471
retains 20468
agar 20467
suz@@ 20465
grasped 20462
death@@ 20460
prof 20455
residences 20452
intently 20448
pseudonym 20448
academics 20447
dled 20443
chaplain 20442
smar@@ 20440
doyle 20435
probe 20433
1826 20427
iner@@ 20427
agreeing 20426
temporal 20424
cis 20423
dudley 20423
disciplinary 20421
unprecedented 20420
prominently 20415
rand 20414
bram@@ 20412
jud@@ 20406
haul 20404
carlton 20403
cht 20403
sti 20403
sunrise 20397
lifts 20396
rhythmic 20395
smoo@@ 20395
distraction 20394
icus 20392
inherent 20392
irre@@ 20383
twilight 20383
broncos 20382
manners 20372
memoirs 20372
waitress 20372
clearance 20368
entirety 20368
oles 20368
harassment 20366
rouge 20366
instituted 20364
nr@@ 20364
workforce 20364
infections 20360
einstein 20358
noti@@ 20358
thermo@@ 20358
andhra 20356
ggle 20355
lumin@@ 20355
semester 20350
unrelated 20349
garde 20347
lime 20347
possesses 20346
if@@ 20345
surround 20345
enna 20344
robust 20343
gloucester 20342
deficit 20339
xia 20336
infamous 20334
corrected 20328
por 20326
etta 20325
carni@@ 20324
economically 20323
gren@@ 20322
attracting 20320
unwilling 20320
torah 20316
garcía 20315
randall 20313
stunning 20312
inver@@ 20309
quil@@ 20309
warran@@ 20309
antarctica 20308
angie 20300
valencia 20300
simpli@@ 20297
lal 20294
shouts 20294
theo 20294
xiii 20294
banker 20292
eux 20292
scouting 20291
ancestral 20290
physicist 20281
23rd 20276
ole@@ 20275
aide 20274
tertiary 20274
wyn@@ 20274
darkened 20271
uranium 20271
individu@@ 20267
tis@@ 20266
laz@@ 20265
fern@@ 20263
mind@@ 20263
fini@@ 20261
104 20259
jacobs 20256
exposing 20255
ony@@ 20255
markers 20253
gaza 20249
defeats 20248
rol 20247
slogan 20245
roma 20244
trades 20244
dez 20243
suppress 20243
beaver 20242
abdullah 20238
rover 20238
phrases 20235
nodes 20232
fortifications 20229
rahman 20228
snar@@ 20228
strat@@ 20227
tenor 20226
grac@@ 20224
cere@@ 20223
enduring 20222
explo@@ 20222
levy 20219
gusta@@ 20214
aaa 20212
marginal 20210
umi 20210
wrestlers 20210
holden 20209
extracted 20207
consum@@ 20206
pitching 20206
headache 20198
basal 20193
bol 20193
combinations 20193
postponed 20193
anno@@ 20191
implementing 20187
giles 20179
lottery 20175
grin@@ 20173
mountainous 20172
compression 20169
nordic 20164
prostitution 20164
nock 20163
replic@@ 20163
ems 20161
thankfully 20154
warwick 20154
grazing 20151
saurus 20150
ambi@@ 20149
ake 20148
thanksgiving 20147
puppet 20146
uro 20146
irrit@@ 20143
vegetable 20143
terra 20139
helm 20138
packages 20134
jubilee 20131
homestead 20127
blu 20118
protector 20115
basque 20114
vivid 20113
fauna 20111
cooled 20103
airways 20097
ivan@@ 20096
winked 20096
hyderabad 20095
paternal 20092
cherokee 20089
oe 20088
oes 20085
subordinate 20084
anton@@ 20083
requ@@ 20080
uk@@ 20076
nic 20075
zip 20070
decorations 20065
croft 20064
rue 20064
vla@@ 20063
tehran 20061
devo@@ 20058
basilica 20055
notation 20055
är@@ 20055
ango 20053
deadline 20051
kathy 20051
music@@ 20043
sor 20041
lil 20040
prescribed 20040
forge 20039
bria 20038
jewel 20036
tighter 20033
stun@@ 20032
issuing 20030
policeman 20029
horse@@ 20024
harmful 20021
ferr@@ 20018
shab@@ 20010
applicable 20008
productivity 20006
investigator 20003
elves 20002
hia 20002
intel 20002
purity 20002
playground 20001
clive 19998
reasonably 19996
viking 19990
granting 19986
halloween 19986
izing 19986
line@@ 19981
ducked 19979
plantations 19978
arlington 19974
ffer 19973
capitalism 19970
chooses 19970
honorable 19966
unfair 19966
woven 19965
airs 19963
pedestrian 19962
apparatus 19960
craw@@ 19960
memori@@ 19960
lambert 19954
zel 19953
seam@@ 19951
snorted 19946
ambition 19942
humorous 19940
dangers 19938
swimmer 19938
hassan 19937
ound 19936
weights 19935
cass@@ 19934
gly@@ 19931
8,@@ 19930
cocaine 19928
slice 19928
explosives 19927
correlation 19925
anie 19924
discoveries 19924
gale 19923
isles 19920
spheres 19919
icians 19918
serpent 19918
toast 19918
cameo 19915
grow@@ 19915
nielsen 19915
operas 19915
skinny 19914
space@@ 19914
resembling 19913
reu@@ 19913
revision 19913
stove 19913
analyses 19912
contingent 19909
nol@@ 19908
arab@@ 19906
tibet 19906
jealousy 19905
euph@@ 19904
know@@ 19903
solidarity 19900
apostle 19898
laced 19898
statewide 19898
ducks 19897
seize 19897
scrip@@ 19893
lessness 19891
reorganized 19891
nee 19887
pé@@ 19885
û@@ 19885
munster 19883
gymnastics 19881
reminder 19881
klein 19879
barred 19878
atro@@ 19877
mortar 19875
puri@@ 19868
ints 19867
perennial 19867
pounded 19858
barber 19856
compulsory 19856
cle 19854
aerospace 19852
foremost 19852
parachute 19851
neural 19850
sers 19849
winged 19849
sensory 19847
bangkok 19845
gim@@ 19844
bermuda 19843
execute 19843
pharmacy 19839
1806 19836
motiv@@ 19836
bath@@ 19835
kuwait 19833
mhz 19832
oric 19832
beacon 19831
sasha 19831
foreigners 19829
stor 19829
speculated 19828
inting 19826
touch@@ 19825
dec 19822
gazette 19822
mart 19821
connie 19815
sells 19810
titular 19808
vian 19806
undefeated 19805
cic@@ 19804
prompting 19800
stream@@ 19800
appealing 19797
melt 19797
lorenzo 19793
hui 19788
vengeance 19787
rpm 19775
wallet 19775
aye 19773
polis 19772
commuter 19771
irving 19771
well@@ 19771
cataly@@ 19769
shortage 19769
1816 19763
ize 19762
xen@@ 19760
discrimin@@ 19759
ete 19759
1.3 19758
geometric 19758
rom 19751
titans 19750
viscount 19750
barn@@ 19749
willingness 19747
fixture 19745
sylvia 19745
beau 19744
edith 19741
fox@@ 19738
dged 19736
optimal 19736
pumping 19736
sanctioned 19735
macedonian 19733
ü 19732
engineered 19731
softball 19730
dams 19728
harriet 19724
disappointing 19719
randolph 19718
daniels 19711
lick 19710
constan@@ 19709
capitali@@ 19708
jap@@ 19705
vá@@ 19700
viruses 19699
homosexual 19697
spilled 19696
eliminating 19695
vintage 19695
170 19694
hf 19694
chamberlain 19691
packet 19691
1870s 19688
[...]
